[PAD]
[UNK]
[CLS]
[SEP]
[MASK]
!
"
#
$
%
&
'
(
)
*
+
,
-
.
/
0
1
2
3
4
5
6
7
8
9
:
;
<
=
>
?
@
A
B
C
D
E
F
G
H
I
J
K
L
M
N
O
P
Q
R
S
T
U
V
W
X
Y
Z
[
\
]
^
_
`
a
b
c
d
e
f
g
h
i
j
k
l
m
n
o
p
q
r
s
t
u
v
w
x
y
z
{
|
}
~
¡
¢
£
¤
¦
§
¨
©
ª
«
®
°
³
´
·
º
»
½
¾
¿
À
Á
Â
Ã
Ä
Å
Æ
Ç
È
É
Ê
Ï
Ð
Ó
Õ
Ö
Ø
Ü
Þ
ß
à
á
â
ã
ä
å
æ
ç
è
é
ê
ë
ì
í
î
ï
ð
ñ
ò
ó
ô
õ
ö
ø
ù
ú
û
ü
ý
ğ
ı
ō
Ż
א
ג
ו
י
כ
ל
מ
ן
ר
–
‘
’
“
”
…
″
₤
▼
★
、
，
##o
##d
##e
##c
##m
##n
##a
##t
##i
##f
##r
##v
##w
##s
##u
##l
##g
##A
##Y
##S
##U
##R
##T
##I
##W
##b
##q
##z
##é
##p
##y
##h
##O
##G
##N
##H
##E
##C
##F
##D
##x
##5
##8
##k
##í
##0
##j
##V
##K
##L
##9
##3
##M
##X
##®
##6
##2
##B
##1
##4
##å
##7
##J
##P
##ü
##Q
##ñ
##´
##½
##ö
##ä
##á
##¨
##ï
##ë
##è
##ó
##Z
##ã
##î
##ג
##א
##ל
##û
##ç
##¢
##ô
##à
##°
##â
##ê
##æ
##ý
##É
##ú
##ß
##ò
##ø
##ì
##º
##Á
##ð
##Å
##©
##ª
##È
##Ê
##▼
##ō
##¦
##Õ
##õ
##★
##Ã
##ù
##ר
##מ
##ו
##ן
##Ó
##ğ
##³
##ı
##£
th
##er
the
##in
##nd
##at
##es
##or
##en
##ing
##ou
##is
##on
##ed
##ar
and
##ll
of
to
##an
##it
##as
in
##re
br
##om
is
##ic
##le
##ot
##ut
##al
##ct
it
##il
be
wh
##ie
Th
##ly
##st
##ov
on
that
##ow
re
##ent
##ad
##ve
this
##ch
##ion
##et
##ay
st
##gh
##se
mov
was
##ith
##im
for
##id
##ilm
The
film
as
##all
##oo
##ere
##ce
with
##ver
an
##am
se
##ld
##ir
movie
sh
you
##ke
##ur
##ter
ha
he
li
but
##ill
##ers
##th
not
ch
##ally
##ck
##ess
##ri
are
##ome
##est
his
##em
##pe
at
##ra
##ould
##ul
have
su
##ght
##ust
##ro
##el
fr
##un
sc
act
##ain
do
##ore
who
ex
one
##ble
so
pl
com
##ood
##out
all
ab
we
##act
al
##ol
##ant
##pp
##ak
by
##us
##ag
##ies
##art
de
##ous
##op
like
wor
##her
It
out
##ist
her
or
they
from
ne
##ast
##one
some
con
##ost
##ven
##ation
##um
##ough
##ight
##au
en
##ate
di
##fe
just
##ich
about
has
##and
me
##os
##atch
##ery
##ard
##ind
##ory
##ack
char
##ive
can
tim
##ort
un
##pt
##ud
up
##ook
This
le
##ake
##reat
good
charact
man
pro
any
tr
ever
##ong
int
get
more
watch
see
##ig
##od
fe
very
what
would
##ity
##ound
there
my
##ff
##ame
##ite
time
bec
##ge
story
no
##able
go
when
pr
##ell
if
which
##oy
scen
she
##ci
##hing
really
had
even
##ab
only
show
Wh
their
##ue
##ure
cl
per
him
##ther
##itt
were
##ap
##ink
##ick
##og
kn
##ious
them
ar
than
##our
did
##ine
##ful
##ond
end
##ence
##ars
##uch
##ays
does
##man
##ade
##so
##rect
look
pe
##pl
##ment
##ause
great
bad
##ish
much
bet
##te
lov
im
##av
other
how
qu
over
##ice
could
been
will
##ople
well
##irst
##ple
into
know
most
##ide
thr
pre
##ose
##iv
##lf
people
##ry
think
tw
##ass
off
##per
ad
##int
too
because
dis
us
direct
Ch
real
##age
ag
every
##ne
po
am
##fter
part
In
make
##oll
##for
##ors
##ob
made
wr
thing
first
##other
##ac
##ull
And
fun
##ile
##pr
way
##aw
##ny
also
##ty
mak
##ict
##ach
don
##are
movies
##qu
seem
##ian
##ace
gu
bl
But
its
character
##ary
work
##ated
sp
##gin
##ep
##ical
inter
##own
characters
##iew
play
te
fl
cr
##ually
##tain
ye
plot
##fect
##cc
films
Sh
##ph
##pect
He
seen
then
##iz
##self
ser
your
want
aw
##ber
##ng
being
##omet
##nder
##ens
##ces
after
love
##ip
##ance
many
say
two
acting
##ittle
##ang
never
There
St
##ath
life
where
##urn
##get
##ans
##mer
back
through
ro
##ark
somet
hor
##ents
19
best
little
rem
des
rec
##ult
##ild
##ily
ve
better
##ather
##wn
##oc
##ise
##oth
gr
If
##ions
##du
scene
##augh
##ire
spe
##ual
find
perfor
sl
##ever
should
##ought
##thing
Al
##igh
min
under
dr
scenes
##ves
##we
feel
##ase
##iend
##ting
again
##lie
##ater
att
res
10
inc
still
here
something
old
str
kill
##ock
##ree
##ave
such
##if
##ia
##ning
interest
may
##ably
##me
##ense
happ
##ating
##ail
hum
##oun
lot
these
##fore
##ving
##ations
sur
##arly
##ason
##alk
##less
cast
performan
cont
##reen
point
##ror
mus
Fr
ap
actors
doesn
those
##ect
fam
didn
watching
tra
##be
dec
guy
gir
sim
##ying
gen
##joy
As
wom
funny
years
down
##vel
id
set
view
##ffect
##ial
enjoy
es
makes
comed
fact
belie
start
em
##erson
going
ob
Br
##ute
Jo
tak
##az
produ
actually
director
before
same
##ool
ev
few
##oss
fin
##iss
though
long
sub
##ash
##ead
comp
why
now
pret
exce
##ew
##ale
##ub
while
ori
ter
##ience
ke
young
big
got
##ffer
thought
##cial
rel
own
laugh
##ft
turn
bit
##arr
tri
##les
You
An
sm
nothing
supp
origin
another
##ript
new
##ction
friend
high
##ings
##ible
comple
screen
##ug
girl
##ons
stu
##onder
che
inv
effect
##aut
##ib
##old
around
##der
quite
app
##iting
How
things
seems
pretty
right
hard
##air
need
##ince
enough
##meric
far
Americ
##ically
##ways
world
acc
ins
##ention
script
##ween
horror
kid
original
person
What
take
wonder
##ness
##ately
kind
They
between
must
##ced
op
##ank
appe
music
action
give
sec
##inem
##ord
series
##ved
##app
##most
##utes
class
sex
enter
role
comedy
bor
reason
##aid
tell
##ward
isn
put
gets
##vious
mom
main
both
She
saw
always
times
hel
car
read
interesting
whole
hand
done
So
least
child
##ased
##icul
cons
##oot
come
lead
sound
beaut
##its
without
ep
almost
##ount
shot
cam
##ner
expect
##ress
##ody
##ope
##over
ide
worth
rev
differ
might
##press
cinem
minutes
##raph
##ully
expl
ind
complete
ll
cra
##rible
##hn
aud
Se
war
##ines
call
##bably
##ently
making
bu
##ouse
##li
last
Be
##uring
anything
book
##xt
TV
ph
cle
performance
family
inst
begin
De
##red
##wh
help
cour
##ane
art
##stand
entertain
We
##cially
imp
care
##son
##alog
el
##ism
found
Not
That
John
away
run
probably
ext
For
##ife
sequ
let
##oney
##mend
All
##istic
##ures
##ative
##ives
woman
##ert
dialog
##ign
ent
##ition
sure
played
##aster
Re
since
DV
##ange
##ok
##ER
##als
##apt
rather
##ject
add
DVD
##though
mind
##pecially
##isod
abs
mean
worst
poor
##ling
##ten
When
##illi
our
##led
lik
My
vers
##ah
happen
##ember
##ros
keep
##osed
looking
##wood
episod
course
anyone
ty
believe
##alf
##ime
##atter
trying
each
Bl
boy
##oint
del
##ingly
##00
##ollow
cre
##olly
##iver
##ertain
##ither
day
surpr
##ates
##ograph
job
less
sch
bud
comes
Le
pol
##ret
ending
place
sense
##ady
##ommend
yet
##blem
##umb
different
##uck
shows
goes
par
Un
perfect
One
mon
TH
rest
pres
conf
especially
def
dram
stand
American
##hip
short
prov
##iter
Chr
##ues
creat
problem
##ics
##empt
##ney
ac
##iece
gl
super
##ks
head
##dd
##ower
wasn
effects
actor
fan
watched
half
looks
##iful
port
recommend
##ilar
money
##lud
year
cou
##aps
##ality
##ider
##ortun
##io
##ray
##ream
miss
follow
sit
toget
together
##gr
##ster
exper
##ments
Rob
certain
##ann
plays
##ences
fav
audience
talk
gi
##itch
understand
having
said
someone
second
takes
rele
At
##ru
imag
ey
##arn
else
special
poss
nice
##ont
review
night
##way
true
three
Sc
hour
himself
##era
left
##llent
Mar
vis
##pid
top
##ames
fall
##land
comm
version
friends
disc
##ollywood
wife
##ix
##ature
idea
obvious
Ar
everything
budget
##atic
ass
##ited
sty
use
##ists
##ern
##ox
Sp
came
##ional
##ross
beautiful
##ply
Ste
sk
invol
entire
On
det
dist
sing
mur
ref
##cing
seeing
##reak
##ier
##ted
##ton
includ
Cl
during
tot
home
men
##fully
exc
##ides
##day
everyone
later
ed
tal
##sy
ele
##0s
used
excellent
However
mem
heart
##uth
stupid
once
##ired
lack
fight
low
attempt
##appoint
##ets
##ird
No
##amp
death
completely
##ins
##cept
hist
##ren
human
##til
open
Well
serious
##ove
##omb
mar
Don
disappoint
beh
##olute
##ised
remember
cop
simply
##ese
anim
##att
vide
sus
word
##ared
father
co
Christ
Hollywood
##ented
line
stud
tit
##ys
sy
##iol
loc
defin
gener
along
##ract
wrong
song
school
##oon
hero
##gg
emot
Man
##ied
##aring
mess
dra
gra
##ography
camera
black
pict
supposed
dep
either
production
boring
try
##ott
ret
performances
kids
absolute
fail
house
##itten
##uly
conc
eas
particul
small
pass
##idd
classic
couple
Car
##my
except
exam
hope
Mr
rom
women
given
name
##ax
bas
##vin
sort
count
until
star
##ote
flick
sad
##oice
favor
ple
cor
humor
becom
##haps
awful
##elt
cred
viol
##lish
full
pain
##ape
portray
Mich
##itely
won
truly
To
moments
light
##ities
Some
After
getting
dri
##ize
itself
##oles
video
##ps
##sel
instead
##atur
murder
##velop
THE
##thers
Jack
##iness
amaz
##med
unf
##enn
mod
consider
adv
style
face
##sc
##rib
cut
##IN
##ike
##ric
playing
##orm
next
Even
coll
##aj
##ison
##ows
terrible
##ility
doing
however
reg
##que
##ister
dead
##tern
maybe
although
episode
guess
lines
##cess
gives
power
##ork
often
##unch
##cy
wonderful
dialogue
##ident
##ger
others
piece
##ories
##reme
Dav
form
couldn
early
mother
##illy
slow
stars
written
went
##cum
wa
develop
##aughter
##imes
ann
impress
become
Me
liked
With
##olog
live
actress
quest
entertaining
##ony
case
##ized
Is
##ined
mention
##yn
called
matter
##ibly
##illiant
##orn
##und
felt
trans
dark
children
##ush
His
##ouch
##ortunately
##oid
##iller
##ael
Ever
relations
strong
New
title
##body
##ming
rid
absolutely
side
worse
sever
##ler
red
##ley
beginning
guys
Char
succ
fant
mis
drama
certainly
waste
definitely
##oub
##ular
##oke
##pite
##uss
extreme
against
##used
loved
sw
Eng
pop
Then
blood
##eth
master
brilliant
close
past
cinema
##ision
seemed
cent
##selves
##ready
While
et
##pped
wanted
picture
several
Also
##eng
pred
somewh
Now
dem
already
relationship
becomes
##sych
Pr
example
##arb
success
adm
pur
based
ear
totally
game
##line
able
Michael
Of
fans
##els
Why
##ement
direction
##ains
quality
Mc
lives
Just
town
deal
sn
##oil
mor
##ench
list
##ief
av
self
support
stuff
walk
inf
Robert
capt
deser
##rif
200
##rew
##ided
##riend
##unk
fine
grou
##iving
wants
lost
##ts
daughter
cann
comment
Gr
vill
unc
##aving
works
##ene
son
##ms
import
Ge
##ages
writing
cur
nov
susp
Dan
val
eff
Ed
occ
Her
stop
throughout
##play
annoy
med
May
etc
##amed
touch
cult
fem
Every
docum
mag
history
situ
##orge
hon
##ett
tries
fair
##chn
stra
learn
teen
sat
viewer
##OT
break
##ung
enjoyed
col
gave
final
genre
psych
num
##use
level
Pl
deliver
##eter
##ination
crit
foot
##using
shoot
##yp
##etic
appear
##ien
##ik
##ged
turns
parts
mot
##ude
##ient
finally
amazing
prom
type
today
##ron
rep
days
hilar
favorite
themselves
late
Ger
Ke
horrible
contin
killer
Do
##ajor
moment
fig
##vable
typ
document
##itive
behind
group
##ured
##ution
exact
pick
starts
myself
##ards
##ific
killed
wish
##iet
ask
God
intell
evil
##okes
##up
perhaps
thinking
cost
Any
##antly
opp
##akes
Pa
says
decent
prof
##ats
eyes
effort
white
##ried
known
##iculous
incred
took
voice
##astic
##aves
directed
Am
speak
##usb
win
hilarious
happens
heard
##ising
Ind
##ior
Brit
Con
const
experience
##ump
non
Or
ste
feeling
rent
soon
cinemat
##uge
girls
chang
##tra
Har
tele
##usband
David
##eless
##like
##gn
Ne
room
Pe
major
involved
##ether
clich
sle
##owing
cool
##gu
Tr
ridiculous
hit
##AN
husband
War
Per
##AT
hold
told
stories
##aces
roles
shock
dream
sol
bus
Oh
##right
cheap
opin
predict
##ters
coming
cannot
age
James
##anger
esc
##ator
##antic
writer
##ek
looked
##ances
extremely
chance
##zy
score
swe
including
result
weak
##ST
ant
violence
bo
order
##ians
Tom
##cer
leave
English
crap
##urt
Ad
wouldn
quick
appar
ago
shown
techn
##iddle
##ffic
polit
bring
novel
##ex
Ph
event
particularly
happened
Rich
musical
##ique
dev
obviously
##aced
simple
talent
desc
##rop
##ral
fa
pos
taken
country
Je
##mak
##arch
##LL
##urb
##ational
##side
##OR
subject
##gan
jokes
Di
##nded
##ON
##omp
First
##outh
return
brother
##ugg
197
career
var
##rodu
released
sym
four
across
##iety
##wards
suspense
##by
Although
opening
ang
reality
##ots
stay
##AR
highly
##nds
phot
dest
foc
##mm
##ury
gun
##vision
##dy
##itting
deep
inde
sometimes
##ones
##ole
198
huge
##ield
build
##ival
##esh
fut
saying
lar
##ground
body
exactly
20
documentary
doub
##illiam
annoying
hours
##pping
Dr
gore
yourself
##enty
whose
##ctor
feat
similar
##ino
strange
hot
pay
##oul
shots
##ina
##ential
##form
Over
save
opinion
started
important
pull
##na
prem
turned
possible
cinematography
ill
OK
number
air
treat
ones
##cks
subt
El
##ili
ends
sister
change
Paul
##iction
##yond
forget
honest
narr
##co
German
post
living
prot
police
female
William
alone
team
pri
filmmak
running
##aur
usual
despite
##aim
##otic
somewhat
##estern
taking
disappointed
exist
rating
##ball
detail
vict
straight
Lu
modern
fill
##ouble
local
finds
knew
##oud
knows
silly
sent
drug
emb
single
attention
Wor
##mos
##aged
##apan
talking
##ky
respect
##ING
words
ir
199
land
usually
##ubb
problems
##ec
sold
##reci
hell
remind
among
##ald
pot
mostly
ten
inn
middle
##oof
mist
aren
##oad
##ants
episodes
hop
bel
Osc
equ
##ises
##gy
meet
Japan
spir
sequence
##ubl
dog
convin
cart
plan
Sam
cover
atmos
##vers
eng
compl
British
exp
##bel
forg
##ished
cliché
##ital
gang
events
##orable
near
check
hands
due
sign
television
intellig
##rit
box
tells
appreci
##ires
##usion
happy
Unf
scary
stun
Yes
##ered
explain
mark
odd
From
clear
hate
##read
romantic
thriller
soundtra
##br
mater
Maybe
George
##any
previous
Richard
##how
appears
pleas
question
present
none
upon
seriously
dull
predictable
sets
Mor
camp
season
songs
Su
moving
comic
enjoyable
##iod
Frank
Dis
eye
apart
##arely
##EN
sexual
soundtrack
material
aspect
spoil
##athetic
beyond
twist
Unfortunately
Who
IM
ul
##attle
giving
Gu
conv
release
sequel
message
free
##inc
clearly
doubt
##tim
##reet
above
haven
##ices
##ension
visual
ways
##wise
##orry
victim
flaw
future
feature
##ength
easily
needs
surprised
##lin
tried
##ental
Sch
zomb
creep
theat
slight
Nor
entertainment
##ening
French
fast
##asc
adult
accept
##ublic
insp
falls
NOT
bar
Tw
##oe
showing
By
Most
mil
setting
bunch
period
theme
Jul
##cious
##ills
named
secret
Par
myst
working
personal
storyline
adapt
sugg
##aught
suggest
##asy
met
##pend
Ital
##kay
##oose
Com
Like
Mov
iss
reve
attack
minute
actual
large
filmed
##iel
Ab
supporting
##off
yes
##row
easy
##light
surv
norm
within
kept
feels
parents
##EA
Peter
##irt
means
realistic
##fficult
Direct
Ex
ut
comments
herself
Col
elements
Jim
clim
comb
points
difficult
fell
Sim
viewing
writ
meaning
overall
typical
decided
superb
##IL
##res
US
famous
Oscar
##back
law
Good
five
##uses
##view
editing
##ceed
Ang
dan
viewers
truth
##ially
##he
tre
obs
195
Can
##iest
believable
buy
##af
teach
Watch
introdu
##iff
nearly
die
hear
##ering
using
Qu
Its
##rol
York
##verage
brought
##atural
##imin
##phere
Fl
city
##bers
sens
weird
match
##sw
whether
sil
contain
reviews
leads
business
figure
Mon
##essed
ru
##ored
auth
move
tale
##ges
America
express
contr
mix
##OU
##esy
bab
##key
rock
Des
background
ra
greatest
sequences
Ben
dumb
theater
crime
begins
basically
front
King
Gra
soc
catch
masterp
##reed
expected
premise
atmosphere
##atever
##lling
aff
##ara
wait
Bra
##omin
refer
Joe
stri
particular
pat
##aling
apparently
fantastic
average
surprise
Aust
Overall
animation
utter
Fin
Lee
These
situation
liter
Mart
flash
##ively
lim
##ES
killing
Night
forward
mill
IMD
Ev
##dden
Film
lots
Tra
##lfriend
rob
wind
##let
wood
Black
nor
stere
train
clever
##ously
monster
##oor
##ula
crew
##amb
needed
##where
emotional
male
stage
exec
##ogn
Sm
tast
poorly
##iences
acted
##real
leaves
avoid
fire
oper
##lier
advent
pure
wit
gone
##icks
grand
inte
resp
bother
Ser
sick
became
##acing
footage
lame
girlfriend
##urther
forced
##unt
strugg
credits
AN
er
##overs
write
##com
##cle
sudden
##rated
space
Here
bored
memorable
public
##ager
heav
Will
##fer
anyway
Pat
##uted
enc
copy
society
Eur
##arre
allow
##head
##sh
shame
##rific
emotion
unique
project
##bert
mad
interested
villain
80
rich
profess
ultim
somehow
meets
##ppy
mystery
##rey
unlike
discover
Disney
dam
stereot
prison
laughs
water
whom
perfectly
features
roll
costum
los
En
##cers
##nding
Wood
Let
cheesy
nature
gay
##aking
romance
reading
keeps
##por
Japanese
concept
##ived
third
Scott
30
##angu
##uel
quickly
##arth
meant
##iliar
masterpiece
Inst
Great
cap
##acy
196
possibly
##ius
uns
imagine
##agon
##isf
worked
histor
please
gh
##ries
clos
conne
##rupt
dance
Act
extra
disturb
popular
##chie
Star
badly
realize
Af
joke
general
repe
Gl
cry
trad
hom
writers
Ale
band
##ze
amount
screenplay
purp
earlier
starr
193
rate
older
##uff
Em
##cted
##ips
fasc
sorry
est
##olf
##oph
dramatic
powerful
IMDb
total
agree
fi
innoc
recogn
##ai
##hood
##urd
colle
##king
brings
various
##allow
##anks
collect
Bar
battle
##others
towards
##more
cartoon
##ram
brain
admit
incredibly
##pper
inside
scient
##aked
vamp
answ
hair
trash
directing
portrayed
##cessary
creepy
Bill
jour
spent
development
15
##gest
reasons
directors
occas
note
Che
Another
sleep
political
eventually
attract
##ma
invest
cir
appro
##ask
imm
design
fails
##itty
Cr
langu
##ned
Pro
sounds
fairly
##ette
commun
##RE
spirit
flat
deserves
##ana
und
wasted
leading
beauty
cond
##ases
telling
##erry
phys
deb
create
Russ
##itted
Mad
##OO
manages
boys
ign
fighting
porn
ended
record
ideas
revol
attempts
nud
plain
194
##andy
expecting
era
Hor
bed
ident
##roy
social
plenty
familiar
depth
Other
neg
##ivid
members
Van
##friend
indeed
World
ca
##oman
missing
offic
accident
whatever
symp
outside
Tim
caught
jud
##uct
ess
talented
ble
##inary
suffer
mood
suck
##ague
travel
react
##inger
common
positive
##zz
stat
impr
##ele
##erm
##iously
relig
##par
laughing
Italian
Instead
cute
##ding
remake
Mat
##to
##arrass
achie
hy
##medi
repr
potential
cat
crazy
created
western
##bo
produced
claim
##izing
requ
filmmakers
##ishing
leg
recently
escape
Jane
pace
##emy
biz
##iny
step
90
reach
##belie
embarrass
##erv
SP
idi
pu
wrote
mentioned
funn
##ero
brief
forgot
##ades
##ites
control
##overn
following
fash
##istry
unless
intri
missed
nudity
former
##ology
Europe
immedi
stereotyp
Big
trail
Dead
##iers
doll
##ey
complex
medi
anti
mel
Movie
amb
Director
hardly
approach
lady
credit
waiting
subtle
slightly
Sw
Cra
arri
##work
##gress
Kar
store
mach
##IS
##ieces
search
##ee
mid
##uce
sweet
rece
##venge
earth
##uter
doctor
Red
cross
fly
further
##ashing
##oved
draw
House
Park
##berg
filled
Love
sees
##aging
casting
decides
color
convincing
##mas
stick
High
uses
fantasy
Rock
mass
desper
##lu
##sters
##rage
value
Perhaps
chem
##gram
rad
##ibility
wall
delight
fit
##illing
Where
married
##men
##go
##bs
entirely
Ir
##uine
pointless
tension
##lict
Boy
soul
##aud
track
Gold
##bor
myster
##elly
follows
##lusion
portrayal
Ye
tort
died
appreciate
##ened
##itation
Lou
language
ine
sum
scream
unbelie
luck
cause
##eem
##iced
remark
##alth
genuine
bizarre
##ossible
choice
unfortunately
##eren
Hitch
god
intelligent
##esome
younger
solid
moves
##uster
accent
##uit
Fred
week
Ray
##ounter
##annel
satisf
mere
##ivers
fashion
depict
##ares
tough
fol
party
pack
##anch
ground
critic
images
manner
successful
##ED
biggest
regard
situations
exciting
##ilt
sci
danger
Dra
Mac
garb
jump
humour
##idden
##vent
##VER
##isingly
##aus
longer
Sec
wild
50
rap
amusing
incredible
Still
company
##isc
terror
compet
purpose
##gic
remain
breat
decide
Christmas
Mur
##yl
culture
focus
violent
dim
fake
##irty
II
Mel
##ille
100
effective
ball
##iment
##ki
##ateur
producers
##OW
brut
recent
news
mer
Best
otherwise
office
beat
spend
Sure
likes
trouble
college
##ribly
##ization
##ining
kills
changed
dancing
Angel
inform
glad
demon
involving
kick
questions
repres
##arily
proper
program
suspect
concern
bomb
values
continu
Alex
weren
Very
impressive
##wart
ups
Anyway
pathetic
fascin
Go
##itary
##standing
compe
Mary
prop
spot
product
ghost
Bat
##OM
##anda
normal
showed
street
##gend
garbage
##unny
barely
##while
compared
assum
opportun
Charles
##come
##alt
fear
amateur
Ber
test
singing
taste
bull
##here
loud
##ensive
##andom
Ann
Indian
Afric
ST
oh
##ios
disg
interview
runs
failed
##asher
##irl
OF
bott
fat
suddenly
Bob
makers
awesome
road
Two
chemistry
Te
affect
cold
spect
ability
Bri
bought
City
##BC
##sequ
Cor
Fran
##ective
explo
considered
length
##ches
disturbing
carry
shooting
avail
accur
trip
gag
Str
studio
drag
state
suit
door
##ali
Only
Bur
repl
##iding
##ifully
Im
Way
numb
crimin
reveal
govern
impossible
##IT
##ondon
##LE
##rel
leaving
##ified
smart
exception
century
hang
##iles
##appe
Bel
log
##aven
##pher
Stan
Jones
##cceed
genius
lab
twists
island
##aper
minor
key
boyfriend
immediately
thinks
books
Earth
Ham
succeed
London
natural
##une
Mo
See
considering
adventure
audiences
okay
##ders
##gar
literally
##ging
##ales
favour
##idence
basic
heavy
SPO
impression
issues
##ica
##room
Bec
pract
##fort
##str
appeal
Despite
sitting
standard
##cif
author
##con
##ena
Though
baby
Dark
investig
mouth
redeem
##ILER
Jeff
##cast
notice
unex
Sl
burn
ship
random
##izes
##xic
slasher
finish
sav
Paris
SPOILER
Bad
Miss
##iring
fresh
Because
##lect
likely
fore
insult
added
starring
pers
##edy
force
sexy
conclusion
complain
stunning
70
##ify
Ag
##cock
alive
har
##irth
##oken
occur
Bro
gem
appearance
Pol
Yet
rated
revenge
af
indust
##elle
climax
neither
computer
zombie
threat
depress
faith
respons
##owers
scenery
Charlie
Kn
Co
Never
wee
somewhere
##oop
##osp
terms
presence
##wor
##gen
plus
Smith
Steve
pieces
##ands
cinematic
journey
graph
destroy
Austral
18
##ological
Ple
jo
nowhere
People
flashback
available
mult
magic
Jean
soldiers
Hen
Hol
Mark
##ode
##lessly
Vict
##bl
##ka
neigh
month
conflict
##ID
managed
##arsh
animated
passion
##AS
affair
spl
##icide
Chris
##anna
Christian
motion
witness
wise
remains
comedies
ultimately
##riage
names
##opher
##ford
photography
din
squ
describ
adaptation
Sci
##ander
historical
innocent
##aff
suppose
Spe
rare
##ores
##itions
science
thrown
Nothing
constantly
narrative
million
tradition
intrigu
##stem
charming
changes
commer
beautifully
emotions
military
11
##athy
##ham
details
gold
host
##round
prep
##ivil
##ropri
Tar
ast
drink
escap
utterly
Harry
tone
##esides
protagon
Ry
six
Fe
##estival
offer
influ
##abb
behav
individ
surprisingly
intended
terrific
places
Bruce
##rick
##itude
##ste
laughable
##wr
##kn
##vert
chall
producer
Tony
##urch
soft
ur
Many
##boy
##udd
stands
alien
presented
Victor
loose
throw
compar
disappointing
building
Gi
recommended
Too
date
##vey
feelings
touching
fool
##awn
government
##imp
generally
CG
boss
##oking
unbelievable
13
bur
charm
addition
Kr
WW
##OV
##kin
painful
costumes
##oices
##icated
Hitchcock
filming
##unting
##orts
Av
puts
Steph
dad
##erous
surround
South
loves
curr
lovely
absurd
Adam
object
hoping
medioc
##ospital
Sn
##eg
themes
Once
breath
intense
12
system
ener
##ability
slowly
aspects
Somet
excuse
fully
lived
Bo
developed
Hard
pun
##ched
acts
moral
Super
Barb
lif
disappointment
student
silent
commercial
individual
Gen
Ro
##field
mistake
Part
tired
mysterious
fiction
ride
##ini
discuss
West
Harr
thank
drunk
expectations
Stewart
drawn
magn
worthy
Bet
##oes
init
##board
##AD
##elling
intern
equally
Jon
defe
##ploy
clean
element
##oughly
legend
correct
sight
##bol
Sand
knowing
subst
fascinating
opportunity
##entially
outstanding
resem
Jew
##ueen
drive
contains
##anted
Carl
##eal
##IG
impl
##oned
##reg
Christopher
Dou
Fox
##inn
##ooks
qual
Martin
Bas
edge
race
##aine
content
laughed
##min
serial
include
pictures
melod
East
##ipp
##CH
disaster
serv
##sey
walking
Er
students
flicks
critics
Gar
pil
noir
mainly
location
seg
Thom
##asty
surf
happening
confusing
40
Both
rac
image
Shakes
desert
##ledge
Kelly
##gl
Phil
More
dies
rip
held
##onna
Everything
ge
cloth
disgust
Did
##gly
process
##ples
Du
pair
lover
likable
Robin
irrit
Ap
dro
round
cell
dread
virt
##rest
##ift
nons
naked
Americans
compelling
Day
Young
difference
Steven
marriage
##tend
Walk
##lyn
##iday
##ural
##ribe
Laur
Show
confused
relationships
drugs
Billy
mir
oppos
Bab
Tre
dubb
vampire
Ter
##IE
lacks
impressed
Shakespe
faces
##table
folks
Naz
lad
##inct
dress
div
Little
holes
Dick
Sad
share
helps
giant
actresses
lighting
traged
victims
aut
ment
prim
seemingly
Story
appeared
adds
symbol
AND
information
spectac
gorge
##uts
##osh
hospital
##uous
Mexic
independ
mart
forever
forgotten
Mus
Mag
thor
##thur
chase
Russian
remote
paid
consist
Rog
ri
creative
Canad
negative
##aries
delivers
wide
resc
##azz
##ession
Please
rout
##mark
dreams
fault
flaws
nobody
bi
eat
zombies
aside
wondering
putting
answer
multi
fright
joy
##aton
board
anymore
crow
finding
estab
IS
Sar
##vir
progress
club
offers
artist
##ooked
everybody
trailer
##asing
highlight
market
industry
##known
melodram
Hell
hasn
disappe
explan
Men
##ops
professional
##anced
frust
honestly
adults
Batman
Bond
freak
nu
##icip
falling
Conn
allowed
cele
funniest
ham
##ita
convers
provides
attractive
merely
station
detective
Lar
ahead
double
##een
thin
willing
contem
Jackson
fort
suicide
prefer
stuck
imagination
##ushed
Western
##illa
unus
display
Green
gorgeous
##time
##orter
##text
followed
Cam
led
sun
standards
reminded
rented
blind
Ms
den
##AL
##ountain
personality
ready
occasion
mediocre
Jes
##itz
sto
##raid
##ugs
Death
impact
opera
##ech
onto
##rog
Jason
Life
Wil
gri
##ront
##ilities
becoming
shocking
numbers
Shakespeare
path
prin
twice
phone
##soever
kidn
collection
bottom
fellow
aim
##eral
area
unreal
Having
ord
whatsoever
cops
animals
scientist
Lyn
wearing
picked
base
eight
unne
##itor
Their
tragic
latter
##gue
actions
strength
helped
supposedly
Es
##lled
underst
inspired
##stein
##AY
##anic
youth
##entional
McC
thanks
Ford
Hel
hide
member
shouldn
Girl
##pected
Henry
##yr
Dev
Les
ON
justice
Thomas
grow
##appy
Kevin
##IC
listen
pra
moved
trust
Ryan
celebr
achieve
Edd
Since
##eper
##oted
plane
weap
##agger
childhood
proves
formula
summ
slap
artistic
Jud
Wal
##pret
quiet
craft
tragedy
crowd
Sus
sour
##ta
##terest
turning
born
friendship
nasty
##anish
##illed
thoroughly
bene
##ris
##ET
##asure
Blood
Sy
Sil
##lor
overl
seconds
speaking
teacher
##odies
Den
tar
knock
superior
bright
sadly
##LY
realized
##azy
La
##ring
##bb
chick
warm
Law
commentary
Ac
punch
began
horse
wooden
App
Okay
broad
Anne
epic
surely
murders
Danny
asked
Second
lose
##mes
##rid
##inese
Space
continue
CGI
000
channel
plots
provide
deserved
physical
Dam
##mon
##upp
creature
##ued
bits
central
winning
Finally
rape
##hol
##esty
angry
Pet
thus
afraid
IN
##ium
crash
describe
repeated
lay
sell
insight
80s
energy
clothes
dying
##ules
White
depart
apartment
introduced
ugly
agent
blond
perform
relative
##mi
##oses
##under
##oring
##roc
wanting
employ
Jerry
VH
##ha
arch
struggle
Sher
pleasure
damn
Jenn
##AC
vision
memory
Look
rubb
##arded
syn
religious
unexpected
Ram
##well
##oos
scare
loving
##agers
compare
la
##ators
##icious
lets
planet
redeeming
load
##apped
fre
##port
necessary
accom
teenage
favourite
60
food
watchable
Pal
der
Williams
mut
Chinese
comedic
explos
Johnny
brutal
tour
lies
Mike
ver
brothers
intriguing
##rors
##erk
##ano
##otes
unw
elect
Carr
Jr
bal
##oom
##aire
Horror
##kward
relie
##pective
soldier
nomin
##xual
##rend
separ
unin
interact
##ousy
anywhere
surreal
##ropriate
unknown
filmmaker
North
accurate
##reck
asks
deserve
belong
Lew
sin
holds
clichés
contrast
Brian
Mi
Which
block
intelligence
torture
Master
Roy
tears
WH
Those
knowledge
priv
##ja
grad
Li
Win
du
##icle
stock
personally
surprising
skin
issue
martial
Last
games
deeply
##UT
tem
##earch
##entious
doz
awkward
Dar
Lind
grade
research
Joan
understanding
loss
##afe
sucks
tend
wonderfully
priest
paced
player
Arthur
##undred
apparent
establish
birth
cow
empt
Howard
heads
includes
target
bank
##eman
##iance
##duc
##ifer
explanation
Rus
Tay
thous
Alan
hotel
Moore
Stephen
Ho
Thank
phil
hint
Allen
gags
Was
civil
mob
##cl
##kes
frame
Before
Out
hyp
mine
mild
##ency
##ilst
blame
Everyone
Eddie
Dor
##aly
##ama
noticed
magnific
Sant
ris
vir
Thr
assist
Sin
Tex
##aph
motiv
limited
radio
independent
Del
Kid
ted
##gent
account
reminds
unusual
dig
Pre
sac
remarkable
70s
Dem
hundred
##ras
##enge
Matth
flying
VHS
Far
field
hat
##father
##olution
blue
recall
leader
buff
purs
pacing
##iac
bland
DO
boo
##ville
##ancy
scared
##aker
nicely
##ademy
stink
veh
locations
##aturally
captured
signific
enth
##ateg
arts
dimens
Max
Ron
tur
tight
##oons
##AM
thats
twenty
##ording
returns
protect
engaging
Rom
soap
anybody
army
calls
accompl
Ol
interpret
intellect
rarely
memories
Pres
dangerous
opposite
##eness
##herent
belief
creating
nightm
learned
Capt
hurt
##leep
insane
Eric
Hall
hated
##ivity
mental
pen
##nia
##atory
##adow
responsible
Brown
references
unnecessary
ens
machine
nonsense
##bian
##yer
manage
Chap
visit
##atured
community
Taylor
Ell
les
##iven
contri
finished
##olds
months
bath
proceed
lovers
realism
##SE
Mrs
treated
explained
neighbor
Ey
educ
##ante
regret
hidden
opt
##entle
##ipul
fights
boat
##soci
minim
incre
heroes
witch
##irk
floor
technical
iron
##house
crack
Cass
Hit
##win
##unn
smile
##ruction
determ
subtit
IT
##anity
players
Nick
##urs
aband
yeah
Lewis
grat
##ails
Sean
humanity
transl
comparison
25
Jose
core
hits
##asts
##plic
specif
contrib
lacking
heroine
driving
behavior
rubbish
card
earn
net
##arp
##unter
unint
hadn
Anth
##osen
##abor
arm
efforts
represent
ner
##de
murdered
Davis
Louis
##cise
##aver
stret
partner
humans
##eron
summer
theatre
current
Gary
spoof
dealing
uncon
criminal
pilot
pet
##nam
##vis
##ogra
prove
Mitch
REA
junk
lock
aware
gotten
keeping
capture
Columb
Wr
na
##war
##uc
##reets
bigger
mission
England
constant
text
instance
Wayne
eating
##ooper
experien
bloody
survive
foreign
vs
##thern
struct
Gh
##osaur
award
desp
villains
Again
philos
tape
##pless
mixed
circum
reaction
protagonist
Jennifer
cars
humorous
cuts
goof
##rous
##lock
press
Andrew
monsters
included
ordinary
Lord
Sur
ban
ring
##val
suff
context
##icked
Guy
desperate
deals
##iser
therefore
growing
Barry
European
Hu
##orious
flesh
Spanish
numerous
below
Avoid
##sem
dism
discovered
Wild
print
hopes
cable
witty
chore
speech
finest
owner
irritating
##vant
##urse
envir
crappy
Daniel
Cent
Jan
categ
fif
##iens
incomp
confront
improv
revealed
Lynch
Nic
##ulf
edited
advice
guns
pulled
encounter
##ration
##ication
relate
animal
model
frequ
Wow
sed
safe
##atives
hey
finale
steal
concerned
##arl
shop
France
results
window
green
##ushing
regular
Hay
seat
troub
debut
officer
Anthony
Add
Cle
Mont
kiss
ran
##edding
##icate
church
##unted
talents
Rose
stereotypes
dimensional
Haw
pretentious
skills
woods
Texas
Tit
Val
fate
terribly
assass
##down
remembered
media
psychological
circumst
environ
NO
##irm
SPOILERS
##imental
Chan
##ques
speed
received
##fortable
##cent
##rical
##sen
##OL
##umps
manipul
African
paper
##rays
##stick
sheer
mini
singer
Get
Mal
mountain
Andy
starting
parody
Cast
toward
##ruct
study
teenagers
##porary
hall
##ading
forces
somebody
##ument
attitude
circ
wound
##ario
disp
cruel
##zan
##urity
##rifying
levels
fra
site
##omen
bear
trib
kinda
corrupt
genuinely
challeng
princi
Matt
Viet
##anned
Comm
Jimmy
Kenn
Lo
fund
park
##ements
une
empty
gory
##sell
associ
organ
intent
photograph
fle
lin
##natural
##ban
##cher
##ennis
continues
Julie
EVER
dated
##vit
##ym
charism
##cient
cru
grown
failure
unfunny
existence
saved
Time
Zomb
cash
ju
##aint
altern
thrill
morning
satire
Morgan
spectacular
Jess
truck
Def
Leon
cameo
breaks
##reedom
occasionally
##ographer
Lady
cant
wra
##stit
##idge
##iro
screw
##phy
generation
Island
Dougl
relief
cal
wealth
dressed
opens
imagin
reviewers
Mean
miser
visuals
Mil
range
##II
##ILL
feet
##abeth
philosoph
Are
Fi
Moon
##cies
##aming
originally
featuring
Australian
described
Camp
##han
##ilies
frank
desire
sucked
Hart
veter
##kins
##ogy
evidence
warning
THIS
grace
unrealistic
Up
##cra
connect
connection
Dian
fab
lat
inh
##uls
##ained
overly
##athan
perspective
Douglas
fu
##omed
Albert
Asian
Really
distract
##alloween
magnificent
Under
tack
vote
reb
unable
Barbara
##ulous
deg
##ella
Rod
bound
vac
discovers
marry
Watching
Bor
Mer
nin
conce
switch
Keaton
contrived
Gene
Much
Old
Ra
decade
Being
lesson
dreadful
Ted
king
##uk
peace
decision
types
##writer
Lor
##isa
sole
provided
delivered
gangster
flashbacks
Hitler
16
grew
pan
##ube
whilst
built
colour
Luc
Franc
traditional
##teresting
Rem
Run
##pent
shallow
##agal
driven
extraord
fal
tor
obl
higher
creates
football
BBC
Dog
Gord
YOU
##ault
##wolf
##itter
obsc
court
involves
da
gas
14
##mar
##bur
##oyal
snow
Eliz
Actually
revolution
gross
sake
Three
##alling
intention
corny
sword
combination
executed
Yeah
Jesus
##vere
##asm
broken
marvel
teenager
Anyone
logic
Broad
Halloween
Kim
gonna
vul
reflect
brilliantly
Cinem
sea
suffering
delightful
dry
fet
Alice
sympathetic
graphic
Wat
cyn
sal
choose
##teen
laughter
cares
hearted
judge
Cat
send
##ights
bag
##aa
##RA
advert
glass
theaters
essentially
spr
##atra
minds
creatures
asking
loses
capable
Chaplin
Bud
emer
inex
##aken
families
uncom
meeting
Academy
##che
##anged
Brad
proved
curious
assume
Coll
##theless
underrated
Anna
Does
emotionally
propag
amateurish
tick
##ilty
necess
aged
believes
talks
Plus
dubbed
counter
fict
##iber
##vy
seven
spin
skill
inspir
authent
Larry
Sund
wel
allows
##osexual
environment
Take
Wars
powers
##rix
myth
##iversal
Fre
Mir
##nie
##othy
standing
village
rescue
Back
Full
Kate
Roman
SH
##fit
majority
handsome
##IGH
##ients
##GE
##initely
##usi
consequ
subpl
treatment
ultimate
lucky
naive
freedom
hur
harsh
##ners
##owell
##ums
sitcom
expression
guest
compan
Sadly
gratuit
Long
Nich
##iable
##pir
portrays
controvers
Evil
inept
##alifor
Hum
table
vol
thoughts
Anton
Seagal
caused
saving
inj
##usive
endless
steals
tedious
bre
pal
##tes
##onic
##lying
sharp
accomp
Without
##LLY
screaming
Captain
Gordon
bodies
##UN
scr
##ummy
##ashed
shocked
embarrassing
BE
lower
##ule
##angers
invent
refres
purch
promise
spoilers
##icit
soph
viewed
excited
Jackie
ladies
circumstances
Air
Sat
Anderson
involve
Plan
rental
Germany
Trek
Hope
Kill
Tod
zero
ages
reviewer
bringing
disgusting
Vinc
fame
##uther
streets
forth
facts
sequels
uncle
Gri
##ba
cho
proud
##oyd
Child
Street
compos
entertained
walked
authentic
hack
teens
passed
normally
Comp
lone
lousy
##thy
Chuck
identity
Harris
nominated
Rad
voices
classics
admir
erotic
routine
Joseph
refreshing
Cas
Min
Us
push
chosen
scale
Simon
contemporary
Rick
##TH
Stre
produce
##aturday
pupp
Pict
besides
##ls
shel
expert
technology
obsessed
vehicle
lesbian
Kong
Ob
bond
rough
##nal
##RI
quir
horribly
popul
costs
fare
##stream
##ura
convey
blow
Stone
experienced
gratuitous
##alifornia
17
Sk
Washing
lo
##itiz
ende
appl
center
Patrick
exploitation
Wilson
Ty
strongly
pleasant
stopped
Appar
Through
Po
##za
offe
##formed
Blue
cutting
walks
religion
weeks
Meanwhile
Elizabeth
Bern
pity
##hy
##imate
ancient
plans
##away
##iverse
Edward
learns
Play
##ausible
intellectual
Sal
fits
hol
##tended
##ighter
painfully
theatrical
hyster
depressing
subtitles
Washington
Dennis
##arian
emph
handed
portraying
matters
##ethod
largely
criticism
source
Bon
Festival
Saturday
UK
flo
maintain
qualities
slapstick
Apparently
During
VER
##iling
##atherine
excit
##ungle
descript
Enter
Our
faced
##IR
##lder
whenever
##ached
versions
dollars
satisfying
depicted
Fam
Ret
##enstein
prostit
Art
breaking
ruined
Irish
substance
Canadian
Francis
Nichol
LA
Mic
Rain
##night
##tle
##uh
losing
asleep
factor
ideal
prior
enthusi
propaganda
Cal
Vamp
##lla
##orted
192
spends
appropriate
cartoons
twisted
Brand
fish
##ummer
##whel
segment
latest
Jac
Tri
ash
clue
##reek
handled
Scar
unfortun
Sid
drop
gig
link
mask
rise
##onel
##aded
liber
sports
##ynam
##cohol
inevit
relatively
##mond
shut
hearing
makeup
angles
harm
Bog
Later
TO
rain
##dom
unfor
evening
believed
van
##ss
##umber
##arden
##achel
incident
Beaut
##gged
excitement
CH
lie
sides
##enced
enemy
Brothers
distrib
batt
fest
##ij
revel
semi
notch
holding
recognize
Kore
None
Your
inner
##acc
##urns
performed
United
experiences
visually
convince
Murphy
NE
dirty
rules
##etime
movement
##ume
pregn
cring
Donald
expos
idiot
Sometimes
##break
reject
price
committed
##insp
promising
speaks
Tarzan
Russell
Vietnam
ho
wear
Inc
Friday
Rec
blonde
false
Bull
Wall
beach
appealing
THAT
virtually
Roger
Die
Ros
vague
Hey
worthwhile
captures
Holmes
##cul
##kend
##ola
Ash
Jewish
surface
Had
tap
##verse
##tha
##udic
trick
featured
##apping
Johnson
suffers
Broadway
Queen
mock
##ixt
##ament
wrest
guilty
contact
reput
##ENT
structure
emphas
San
gentle
rot
rival
##UR
##bles
##ani
section
abuse
outrage
multiple
##BI
alcohol
related
Especially
liners
unfortunate
Lost
##vol
##inal
States
accents
covered
accidentally
practically
influence
praise
Walter
##buster
##arc
##lly
outs
##ostal
offensive
Dean
landsc
Son
eth
jail
##ching
exagger
uni
acqu
##mma
frankly
degree
##anny
##ilogy
##orting
##udes
Unlike
supernatural
2001
position
suspenseful
previously
training
cab
##CT
stalk
haunting
chose
commit
variety
About
Parker
Drac
Fer
Hon
Such
festival
till
##ker
##ety
##roph
neat
spark
bothered
claims
initial
Nat
Wonder
##BO
mainstream
addict
clichéd
sympathy
statement
Besides
Each
Pri
Tor
wedding
##ston
anger
##raction
touches
Come
boot
method
tom
stol
##the
##roll
##rocious
##umm
remin
surprises
favorites
ALL
California
Port
Tur
##erie
##enny
toler
heck
directly
Doctor
sensitive
conversation
unconvin
MST
##ait
##outhern
health
##outs
##ache
##umbling
continuity
Eastwood
service
category
Dracula
Dun
Hoff
fix
scar
arrest
preach
poign
emp
Beat
Carol
figured
Africa
melodrama
##ae
overd
Roberts
Julia
stereotypical
prepared
Basically
extraordinary
Cons
cas
pit
##zo
##eds
realizes
serves
simpl
camer
profound
unlikely
costume
##point
##EE
##lection
##oooo
trapped
term
polic
sorts
swim
forgettable
appreciated
destroyed
Helen
private
Cost
Lau
ded
##itious
##eston
disag
everywhere
schem
Flor
crying
##ooth
##ez
##ION
##oting
spite
presents
skip
Grand
execution
required
demonstr
jeal
ludic
##ello
bitter
effectively
farm
driver
focused
fictional
cook
ice
##reh
atrocious
##olic
storyt
flow
##aze
Claud
excess
hanging
placed
arg
blown
extras
India
pulls
VERY
Rh
##och
##uty
##oster
Alien
reporter
changing
Betty
abandoned
Mill
cust
sne
##rie
##isp
warn
Luke
USA
massive
Ful
hook
sink
tong
wid
##ipped
##ipping
##VE
stom
##ems
Stu
gritty
calling
deaths
renting
politics
Otherwise
Jay
Mid
##ship
##ulp
guard
Movies
veteran
domin
mas
tiny
##aust
##rence
##ga
##ago
##ogether
provoking
Sarah
MOV
Sun
Sorry
pile
task
##ato
cheese
repet
frightening
reputation
Cann
Det
ske
##ked
##elve
worry
Channel
##ibal
courage
imagery
Inde
remotely
accompan
Jam
Vir
naturally
yell
##ourne
Brooks
Clark
concert
painting
narration
homosexual
designed
status
Something
Nazi
End
Lane
Person
wins
according
distinct
Carpent
Charl
upset
Mexican
nostal
device
seasons
quirky
hired
##atically
chair
##ission
Arm
critical
mistakes
robb
Baby
stolen
Hong
cous
##laim
particip
command
Krist
President
Hoffman
Fulci
Have
bird
##rad
##chan
##ogue
greater
##uesome
winner
Next
spoiler
encou
closer
arrives
weapons
Ara
Mod
lift
##assion
buying
convinced
tremend
interviews
Sinatra
##iat
##rating
deeper
##ocal
superf
concent
1980
Seriously
legendary
Laura
Produ
bat
universe
demand
figures
raised
Music
Definitely
fil
##GM
Things
ruin
vampires
WWII
department
mildly
Home
SO
bore
page
via
##dies
chief
unre
##obb
Along
killers
contest
depiction
focuses
funnier
##IGHT
Ha
Kurt
Sir
##ito
isol
reun
scenario
##abe
screening
explains
Army
##etheless
captiv
stayed
sisters
heavily
occasional
dom
vast
choices
timing
preview
teeth
sounded
address
buddy
##clear
starred
puzz
stomach
AL
ain
##nox
##add
offered
China
gruesome
decades
##liver
1970
paying
dinosaur
loyal
##eel
##rant
##uced
##orb
amazed
colors
closing
dozen
Sound
dynam
hole
##omer
##acre
downright
indul
minded
necessarily
Ll
Lam
##zil
diss
##viously
paint
murderer
campy
reveals
Vincent
Mickey
##IA
intens
##avy
overact
overwhel
obnox
experiment
understood
Susan
Da
thro
throws
passing
1950
Cru
Dad
haunted
coinc
lights
listening
complicated
capital
faithful
Devil
FBI
MGM
pitch
##ilton
trilogy
throwing
##iano
##wy
spell
kinds
format
Philip
Sunday
unconvincing
Bu
Lisa
Sov
nude
##mother
scares
mans
crude
##arren
originality
magical
ANY
Berg
Mom
Miller
anime
seek
betray
views
Welles
Someone
dogs
lawyer
Brazil
summary
Count
Kane
native
chuck
##aki
serve
security
headed
integr
Acting
uninteresting
##asant
arms
conscious
titles
Amaz
Phill
combined
succeeds
Superman
inhab
pregnant
Lloyd
##core
##iques
##gie
depend
unbe
maker
handle
letter
jobs
condition
Santa
significant
goofy
sophistic
Goth
##umble
charge
irre
struggling
minimal
ludicrous
river
wand
##arning
brave
Ins
Grant
causes
Swed
Freddy
divor
crafted
Carpenter
Land
heaven
prime
ade
grave
cultural
racist
Hugh
Cur
NY
Pitt
Water
bill
##iled
butt
blah
tear
rights
shorts
McG
Tommy
facial
Golden
regarding
Cage
HA
Pac
##noon
##gon
ing
##ulk
##plays
retarded
Warner
metaph
Karl
Sav
##rist
reward
comical
aliens
strict
##ugos
warned
Marie
True
##incere
##iscent
drinking
description
Cind
forest
subsequ
##ception
examples
inspiration
Cap
Cole
Id
Los
Oliver
Ver
rub
##taking
##gia
stays
attempting
delivery
##belief
answers
nuclear
Catherine
PL
nut
uninsp
amazingly
psycho
Rating
friendly
carried
Spoil
advant
ignor
productions
Family
Dave
Oz
Poor
bon
bik
fond
tun
severe
exer
blat
helping
Italy
expressions
reference
patient
execut
Ren
Wind
dude
fac
hip
wreck
##ffe
##ught
##oven
##acle
extent
Class
Michelle
Prince
introduction
Karen
Columbo
Ow
cy
rank
theory
##chy
##olved
everyday
flight
halfway
Charact
obser
##OOD
properly
Burton
obnoxious
Cry
Four
elder
##pet
adop
Anim
screenwriter
Arn
rule
weekend
Obviously
60s
Cooper
Dream
LOV
Mass
##usty
weight
showc
Stud
carries
Soon
indie
rolling
desperately
join
racism
assistant
storytelling
Hal
shadow
disbelief
guar
incor
enjoying
Ant
dinner
baseball
disagree
aka
fulf
jungle
##fire
##ari
cheer
drives
novels
touched
Check
Highly
packed
Were
##hh
##ida
##cean
argu
basis
00
Gab
Would
bow
gar
##idents
franch
##uns
##iger
poet
Heaven
served
Argent
credible
Woody
mentally
interpretation
Off
Ul
##adays
##actic
##plend
##ianc
entry
Atl
transform
stunt
controversial
reminiscent
MOVIE
45
Ast
BL
cock
jack
tag
tree
##lected
Alt
Blair
parall
stupidity
Probably
ignore
Police
MST3
Fu
cand
##rate
##ya
##OP
##nda
Chic
##aws
##ifies
##beit
flawed
purely
turkey
Greg
Turn
mature
##rees
sher
shark
plastic
prete
Grade
attacks
criminals
determined
Top
Wes
Witch
raw
##ingers
Thanks
##imm
shape
border
caring
elev
credibility
medical
beloved
accepted
##utherland
national
tense
##sec
alright
Andre
2005
picks
Hill
Sutherland
ped
ton
##inging
outd
underground
##beat
comedian
miscast
ratings
carrying
Australia
welcome
nation
##iffer
##onda
deliber
Clint
deadly
announ
femin
journal
international
Lion
Ven
##amond
wears
nose
awards
grim
resist
technique
angle
amongst
settings
attacked
Mexico
balance
lonely
Give
boun
jerk
##sky
##CK
##overy
exists
alter
##olph
neck
unt
disgu
install
confusion
topic
treasure
revolves
Walker
##craft
tongue
Bergman
##fits
##lim
cha
albeit
castle
possess
stylish
escapes
assassin
Pacino
Caine
Pred
Pret
gain
torn
##isher
##ouses
##ibilities
Reg
Maria
replaced
sinister
##wyck
Lat
tune
##bit
Intern
assign
stealing
anticip
struggles
immense
separate
ashamed
Nol
##ams
libr
##umph
learning
spoken
backd
countries
sleazy
atmospher
mirror
intensity
sheriff
Burt
Fair
afternoon
letting
Reyn
mindless
perfection
opened
existent
Cameron
gripping
risk
Bell
Killer
candy
lazy
##orc
##antino
artists
fairy
thousands
network
MU
PG
cave
kung
laid
sincere
wash
##istent
greatly
horrific
adding
##gging
stops
School
embarrassed
Techn
Stanwyck
graphics
aston
General
##lynn
poignant
advantage
24
National
gather
greed
##udge
dislike
exceptional
guessing
##ification
miles
established
Satan
Alf
pool
##BS
render
##ada
##race
Heart
innov
robot
official
idiotic
wealthy
cynical
Jamie
Award
Bollywood
Dri
Nancy
Sol
##walk
##ingu
cance
seeking
arrog
phen
creation
portra
##gypt
adventures
innocence
urban
Soviet
Ral
Wolf
Think
chilling
##opath
manager
lovable
equal
sleeping
##iveness
princip
jumps
wond
##ux
##IM
##ona
##adows
##forms
##quis
coach
McD
magaz
challenge
Victoria
Hardy
imaginative
franchise
Call
Powell
Res
wanna
##zed
##oration
enh
clips
scripts
occup
illust
Comedy
Oliv
Virgin
Hud
Sally
hipp
##fall
##ishment
finan
##ointed
presentation
Grace
steps
sacrif
specific
frequently
Kennedy
Egypt
Greek
aired
##den
##face
##TER
##erior
##utter
exh
arr
contract
convict
suggests
searching
Scarlet
Personally
Met
Rachel
Sab
cases
vivid
##lan
##jud
##aron
Thing
##olves
proof
consists
Universal
devil
Connery
Zombie
Griff
Aw
Cont
##orig
##alley
alt
##gettable
##ocr
##airs
presum
1950s
ironic
##semble
Flynn
Ken
MAN
firm
shr
dece
useless
Knight
coun
hiding
icon
##ken
noted
notable
conven
Marl
sket
corpor
unfold
techniques
Bobby
ripped
Leslie
nightmare
Cath
Hot
Ice
Luck
Brid
fallen
2006
Britain
spiritual
breathtaking
Ghost
Freeman
Fire
Hy
Hunter
gal
hes
wasting
happiness
access
Wend
ourselves
2000
stunts
raise
MST3K
Pretty
Lem
Power
hung
pub
selling
##estly
##arring
attempted
sexuality
suffered
dollar
initially
Jessica
Sky
hill
sings
##vest
##isation
##ounding
##cia
spy
restaur
meaningful
homage
weapon
cousin
BAD
Fle
Holly
nurse
splend
toile
infect
states
exch
triumph
appearing
successfully
psychiat
appearances
destruction
sentimental
boredom
profession
physically
Franco
Imag
Tarantino
tribute
fabulous
Reynolds
Father
Net
Ur
hooked
lying
lyr
nom
##pass
thumb
##esis
enorm
werewolf
##ogan
slo
relax
##entionally
borrow
hopefully
transfer
metal
oblig
Arnold
vent
##UL
##icles
traum
cheek
instantly
videos
corner
repeat
essential
competent
protagonists
REALLY
Andrews
99
Iron
LI
tempt
tied
##ée
rend
##seud
##ooky
##ibl
conspir
styl
irony
scientists
Jonathan
performers
marvelous
Ralph
300
EN
Veg
upper
##yle
thick
##amor
trial
refuses
shoots
destro
achieved
legs
autom
belongs
troubled
consequences
HBO
Ma
dign
overcome
prevent
caric
Prin
Norman
surviv
Secret
scratch
Acc
Pier
eager
pseud
size
##order
##asp
beg
##obi
struck
absorb
##EAD
obsession
surrounding
Diane
Down
GO
Page
Penn
Rep
##mp
##agh
##ELL
storm
meat
##apes
dramas
eyed
##rified
Final
connected
thousand
##hem
beer
alike
Whatever
lesser
closely
weakness
ultra
##worth
neighborhood
Mitchell
exercise
Marsh
Ric
##ila
##iments
##erella
sends
chasing
##elson
##uno
tender
elabor
essence
neighb
vacation
outrageous
21
Ball
Drew
Eve
Further
Mach
Right
Spr
##LD
##itar
##aser
stiff
shines
plant
##ogical
##orses
horrend
lacked
infam
musicals
20th
millions
ambig
Sandra
broadcast
virgin
DE
dump
saves
thirty
broke
##entric
chases
##eline
alb
thrilling
stranger
decl
nowadays
explicit
poster
Emily
##chester
hundreds
thrillers
Sidney
Bott
Sub
##mates
##BLE
spots
incons
Friend
solve
1970s
Lucy
personalities
madness
Fat
Rome
Set
Saw
dare
ecc
queen
##rum
##orrow
tow
##asion
beating
stumb
choos
##aky
Almost
string
enjoyment
territ
carefully
editor
daughters
sympath
##blance
Matthau
atmospheric
Lugos
MA
Vide
sail
tab
##ease
##ran
##AA
##asingly
suits
pros
quote
##pector
parent
mont
glimp
darkness
annoyed
Matthew
Lugosi
glimpse
Curt
Josh
Kath
Kub
Living
Sull
gro
jew
tax
##ype
##isis
brand
inco
smooth
develops
riding
dealt
wishes
acceptable
##coming
Matrix
briefly
colorful
concerns
##world
Special
kidnapped
uncomfortable
unforgettable
battles
adequ
Could
Emma
Nov
Ori
Tru
sand
##mate
##iation
##ww
thread
chap
unh
guilt
buck
Unless
sky
##ONE
Germans
##iosity
AT
WOR
inher
##oma
heist
pray
beings
Stra
lessons
##ructed
Spiel
importance
opposed
Exce
Norm
Ten
Tem
##mo
##TV
##utch
compr
ensemble
Aside
bucks
importantly
larger
patri
identify
folk
miserably
Has
Pot
bare
hitting
kicks
moon
##die
##ellar
Int
##ifting
phr
Myst
confess
##emption
ghosts
locked
Korean
##accur
uninspired
Spielberg
Ele
Fro
Tot
fianc
rushed
wann
##vably
shirt
##kel
chron
##rael
activ
##istically
tricks
knife
spending
pointed
engine
Leonard
Indeed
Hudson
Mother
SU
Say
##iently
##onse
inaccur
##ado
##oops
grows
##ANT
Abs
afford
striking
ignored
drags
Cub
citiz
chest
##rian
attend
dialogs
strangely
fashioned
incompet
sophisticated
Jere
Jake
River
guts
##icial
workers
Sex
president
glob
talked
Israel
fourth
ambitious
disappear
repeatedly
increasingly
unbear
1st
Talk
hood
rhy
brill
spread
Real
honor
Indians
Juliet
newsp
Consider
Certain
Dep
Nob
pin
##hi
##iner
unple
sexually
relevant
Need
revealing
Event
dropped
melodramatic
daily
Laurel
lust
##ean
##stone
##chest
shall
abrupt
hoped
expensive
adapted
Prof
westerns
competition
Apart
dubbing
##uppet
Az
Nelson
##bell
comfort
##agan
consum
##ographic
Scream
dragged
basement
admire
limit
hype
Alexander
endearing
repetitive
portrait
Bros
##mitted
toss
sevent
##igan
feed
attraction
eleg
##pses
selfish
illeg
dancer
##conom
Nevertheless
subplot
inevitable
##breaking
Aud
finger
##oria
##icing
shy
shout
##udos
##angle
easier
electric
stretch
eccentric
Cus
Row
fed
nail
##pse
##erning
##ils
##mann
##ifying
curiosity
inspiring
judg
Rogers
Linda
cowboy
vulner
cringe
Dirty
Hurt
Low
eerie
ruth
##hold
##arts
prol
##ounters
handful
cameos
sidek
strip
remaining
##rehens
Kubrick
GRE
Nice
##nic
##ieu
outl
unim
trite
flu
Carter
nonetheless
busy
Austen
##ambling
attracted
raped
Stanley
split
charisma
Planet
Picture
Return
Cinderella
phenomen
toilet
infamous
Khan
##OS
##kind
##isions
##arter
##istan
Church
happily
terrifying
smoking
appalling
Beck
conclud
##arby
returning
mistaken
Frankenstein
requires
Lawrence
intentions
Chicago
Jer
Ka
Kirk
Woman
wow
threw
##icop
##lee
##allo
##rob
unm
clown
##weet
Bruno
suburb
triv
Geor
Neil
individuals
Buddy
widow
Ah
Cre
Roll
bust
pa
##bid
toy
##ctions
stated
##cend
fears
goal
argue
##ishes
imit
blows
crimes
contro
creators
studios
1980s
response
rapid
35
Lots
Sister
fitting
sque
##ata
staff
##isted
watches
reasonable
Ree
##ologist
demons
launch
motivation
backdrop
cig
etern
lur
wicked
abys
##umin
##inda
##ptic
##overty
Season
devast
engaged
reactions
Science
commercials
Nazis
cardboard
breasts
revelation
Wallace
RE
dub
##iar
##va
##aste
Uncle
elsewhere
##attan
captain
forgive
checking
professor
Glenn
replace
investigation
lifesty
explosions
Cinema
hence
horses
oil
##yc
##CE
##KE
##otion
##iders
button
precious
explod
restra
possessed
demands
Russia
medium
beaten
Angeles
occurs
inexplic
Imagine
territory
unpleasant
Ring
piano
wave
##van
##ader
shower
##ours
##ivan
killings
Claire
Amanda
pulling
observ
Monster
##anagh
burst
internet
fortun
unintentionally
tremendous
Ultim
Excellent
Cow
FR
Fant
fur
lit
nine
ren
row
##lers
stood
##awa
slick
accused
Plot
angel
Oscars
bleak
Remember
wonders
restaurant
Mystery
Bac
econom
nod
rat
wack
##leton
##arted
clues
precise
realise
performing
invis
spoiled
Films
loser
jumping
interaction
Vampire
library
horrendous
brilliance
Fel
Gun
Hind
Psych
hunt
##just
##oms
##othing
##uloid
##usions
guide
##ipes
resolution
evident
grandfather
symbolism
unwatch
virus
fifteen
Jeremy
EX
Rand
Rather
duty
eg
##HING
wheel
areas
mechan
thrills
horrid
providing
Att
messages
corn
documentaries
encounters
Bry
Ju
Med
bog
boil
##don
##uing
##idel
perpet
characterization
gotta
pleased
##unky
##etti
##ettes
detailed
Dragon
III
Strange
Miy
Dorothy
Video
Ire
west
wake
##omit
##etically
chain
##rial
whoever
allowing
helicop
##ERS
##gger
countless
2004
tortured
merit
labor
associated
photographed
hysterical
jealous
Owen
incoherent
CIA
Dal
Eri
Read
pig
##ads
chew
timeless
displays
farce
advance
sentence
immig
golden
surrounded
Honestly
elderly
cul
cried
hire
ranks
##inent
beast
champ
dear
outcome
enters
reasonably
discovery
heroic
motor
returned
1960
Craig
arrive
Ern
segments
holiday
Ireland
mes
ow
##mal
##oni
drown
reluct
##itchen
hearts
generous
Manh
politic
walls
represents
insulting
escaped
accomplished
charismatic
Based
Civil
Hanks
daring
extended
abilities
##anting
##ortion
Whether
##plane
smoke
fancy
distant
titled
antics
flawless
combat
Willis
Madonna
Boys
##iversity
affection
Canada
highlights
dismiss
uniform
subsequent
splendid
Sullivan
Gal
Pick
Ross
##ef
##yll
##idal
webs
##ounds
directorial
scripted
wondered
Reed
liking
Margar
distance
picking
Luci
pleasantly
Frankie
scientific
causing
idiots
receive
Angela
fortune
Brando
landscape
argument
mansion
Buck
gif
mo
pushed
tall
nearby
##prise
crisis
Shep
cared
conserv
##attered
Blake
detract
Carrey
sadistic
Murray
Hamlet
threatening
aimed
Catholic
Eventually
Brend
Cour
Hood
Made
Ru
mic
tons
##bal
##ora
##onne
##edict
##ilted
staged
##ooges
offs
sport
spooky
##anson
believing
meaningless
complaint
loosely
buried
resembles
Silver
Streep
Gothic
Baker
Days
Fonda
Nin
Ned
Pan
Rub
Summer
Tob
dict
hunting
punk
##ucing
##jointed
##atisf
stead
blowing
attached
resour
worthless
audio
menacing
definite
drivel
stronger
admitted
swear
survival
burned
##abbit
celluloid
Walken
Hopper
juven
Case
Candy
Kat
Oper
bang
bold
cens
rive
sam
##ds
##ees
##tt
##iper
##pire
##ira
maniac
##avor
blast
horrors
redemption
1990
Tracy
projects
suspects
frustrated
bathroom
calm
Altman
##original
AW
Ian
Liz
gut
mat
saf
##cil
sticks
sup
worried
childish
##ERE
possibility
listed
##AND
technically
1999
superbly
travels
affected
discussion
Cassave
prostitute
exaggerated
superficial
Bart
Care
Field
Linc
Viv
afor
ego
fired
ramp
##rict
##ye
##esth
plague
whereas
compassion
persona
warri
imperson
concerning
typically
planning
##riters
recorded
continued
logical
thankfully
Campbell
conceived
Cusack
FOR
Sing
gift
##of
##cingly
##unction
comfortable
##uman
goodness
glory
Nightm
prisoners
souls
terrorist
achievement
gradu
birthday
obscure
involvement
metaphor
pseudo
Bach
Dere
Mun
Op
SC
Try
covers
rush
sen
venge
##cr
##corn
##ih
##rich
##hill
##ami
##eland
##oln
##place
##peror
worker
careers
##onym
2002
delivering
subjects
sentiment
##heim
respond
Seeing
ONE
offended
ingred
##ffee
magazine
Foster
Garb
rural
ward
##AIN
shoes
web
orchest
noise
recover
Robb
corpse
builds
Julian
##ESS
draws
Given
lifetime
NEVER
Arab
Five
cere
util
##ameless
ligh
##illian
disjointed
blank
##athers
##weight
stress
##entioned
Union
morality
ridiculously
Carrie
astonishing
Bush
BUT
Code
Dom
Ep
Grey
Navy
Raj
WAR
##´s
##arm
##itudes
##ementioned
poison
Marc
tales
groups
##useum
devoid
Except
traveling
investigate
Children
Argento
Scarlett
wannabe
Cold
Ira
Pur
aid
hunter
##bury
ingen
bew
beats
offering
Shir
tracks
explore
Force
Davies
##oubted
Godfather
blend
Murder
currently
defend
implausible
Syd
Lucas
ticket
Bottom
Certainly
unwatchable
Boll
Gre
Rita
##crow
##sp
##uity
height
notably
Beyond
##isms
assault
Quinn
racial
officers
drunken
##opsis
conversations
Titanic
Recommend
Absolute
cigar
aforementioned
Derek
PR
Sen
nerv
patter
wing
##iors
##eder
##oves
##agin
##aval
pretend
kidding
differences
sadness
slightest
Quite
improved
reached
label
influenced
Todd
isolated
installment
ruthless
Lincoln
Amy
Book
Dill
Point
Ruth
Terry
croc
##entist
stole
##isten
##ortal
##elli
prejud
removed
popcorn
politically
Worst
Eva
errors
overlooked
##ACK
stinker
strictly
Alfred
Griffith
lyrics
Princess
juvenile
Bates
Fiction
pir
sons
##OST
##kish
##erved
bridge
##ovich
##ooge
##keys
notes
scra
##aks
dire
measure
prev
##eps
grasp
slaughter
Branagh
prede
2007
##ATCH
narrator
signs
marks
1930
Craw
benefit
proceedings
torment
Radio
Throughout
Swedish
Fay
Lang
gimm
vo
tool
brains
##ctic
reh
movements
disease
##eping
humili
##astern
Rex
Spir
transport
2003
curse
Worth
conventional
trend
disturbed
require
primarily
Nicole
throat
LOVE
sacrifice
##rehensible
2nd
ABC
Burns
Din
Gil
Gand
Kl
Lake
Make
Mars
sarc
##ipe
##zel
##stal
reel
##uristic
planned
##odge
closed
cliff
disli
dialogues
grab
unfair
models
devoted
Morris
##afia
bullet
digital
hatred
##ixture
dedicated
sidekick
Bol
Fa
Fortunately
Hust
Hist
Kay
Len
Mann
Tal
mal
pants
poverty
tie
vicious
##now
##hand
##ications
befriend
unp
noble
spare
root
genres
hardcore
Seven
Deep
Martha
Club
collabor
constructed
recognition
intrigue
occurred
Eye
conspiracy
Nobody
predecess
50s
Cong
cure
mixture
agents
Short
Brook
harder
##ahl
psychotic
Castle
fetched
dignity
elaborate
Bak
Dawn
Save
kitchen
sales
##rd
inject
##alo
##aled
##ilarly
sho
orders
##umsy
##inder
upd
##obic
decisions
##ashes
trio
imagined
Mario
Clar
generic
Meg
Justin
Granted
opinions
Sandler
gradually
earned
philosophy
inhabit
Massacre
altogether
Manhattan
Ext
Jord
Pam
Squ
Sever
TR
ax
bin
ech
ought
wont
##oir
##ca
##water
##ped
##terday
##emies
suited
intr
##itect
##eller
##plete
producing
acclaim
##ords
murderous
Conf
oddly
climb
winds
Years
Duke
hypn
overdone
Atlant
sloppy
unbearable
Bow
Lin
UN
cards
##oning
inapp
Third
anal
##aman
notorious
##cker
doors
clothing
Head
##ocative
incest
sett
relies
artific
Note
Spike
coffee
commented
satir
staying
explaining
odds
convol
secrets
stereotype
recognized
population
mesmer
Bald
hun
##iere
##unning
comics
aging
afterwards
performer
Block
##iko
motives
spirited
exposed
screams
intrigued
explosion
duo
frag
encoura
arrogant
lifestyle
Fall
Follow
Hung
Lum
Randy
ack
bone
cup
dre
##US
thief
doomed
rocks
slim
apolog
misses
regul
reduced
photographer
##balls
silver
strike
estate
Girls
puppet
wrestling
Turner
Nightmare
Bette
Bourne
CD
Hunt
sag
##atures
##oner
stone
##ima
##unior
##orton
unpr
underc
trained
##onson
absence
sadd
contained
##ambo
Enjoy
satisfied
burning
temper
Century
alternative
cabin
Claude
captivating
poetry
parallel
newspaper
illegal
invisible
Margaret
##oubtedly
Band
Od
Road
Syl
vib
##mit
##emark
trade
aggress
spaces
##onscious
passes
darker
misunder
curs
suspic
existed
porno
reaches
subtlety
Magn
frustrating
blockbuster
unintentional
inventive
arrested
simplistic
acknow
Bett
Hack
Math
SE
Song
foul
lake
wet
##isons
##entin
diff
clumsy
adoles
function
Ass
hopeless
centered
unbelievably
fatal
enormous
Bal
dish
gall
##town
##vity
anth
french
funeral
recru
factory
composed
highest
instant
Blade
buddies
unfolds
Keith
trademark
eighties
distracting
solely
cameras
convoluted
90s
Eli
code
dust
##gal
##zen
##ket
chances
##estic
conqu
Shaw
trap
insert
classical
glor
snakes
##ika
honesty
equip
secretary
catches
depicts
succeeded
depressed
choreography
EVERY
rubber
innovative
presumably
montage
Half
Macy
ocean
##ns
##lo
##IP
##err
notion
appr
##aneously
fantas
towns
cannibal
barg
introduces
grandmother
unsett
Hamilton
describes
scheme
Curtis
Origin
GREAT
FX
Gone
cats
jazz
nause
south
##oric
##otte
stro
##ela
conve
##ciating
guitar
thoughtful
detect
countryside
writes
Glover
1940
witnessed
synopsis
chaos
International
Cag
Live
Mah
maid
pays
##tte
##woman
##uable
##jo
Thunder
stabb
exotic
enemies
overt
##pert
Chase
carn
shortly
coherent
Prot
psychopath
steam
##ONG
buildings
Supp
damage
Beautiful
blatant
Age
Cox
Cross
Crow
Gore
Han
Put
tame
voy
##gers
##entions
stellar
##ulate
alle
cheating
explored
Myers
dramat
smaller
amounts
terrorists
consistent
dozens
specifically
despair
casual
robbery
Characters
immensely
Frost
Doll
Falk
Vis
##adget
##irts
shine
agreed
Alm
##ruciating
copies
painted
forms
##etta
1995
recording
regardless
bullets
splatter
primary
Muslim
wrapped
rebell
shelf
Predator
Vegas
equipment
Eth
Py
WAS
bes
fighter
mudd
tail
tires
wine
shadows
##hero
191
Ali
craw
Forget
styles
snake
cliche
ruins
satisfact
##OME
Damme
uneven
emphasis
Cassavetes
Garbo
Cagney
Joy
Women
je
sab
##isand
sung
user
agrees
##izations
##ressed
##ucky
paran
Marion
Norris
strikes
Year
exploit
fooled
consistently
miserable
philosophical
##ulsive
Florida
financial
psychiatrist
Profess
Miyaz
DON
Ward
ears
hates
tank
##writers
##adine
justify
endings
partly
Sha
State
grotes
relent
##oked
monolog
monkey
failing
defeat
Boris
Karloff
Shirley
Domin
Pink
mouse
##olve
worn
diamond
clock
poetic
Stars
resur
rooms
convincingly
teaching
Patric
kicked
Annie
##works
passionate
Stevens
loads
Kids
Elli
liberal
dynamic
irrele
exhib
According
adequate
Mason
MTV
Wid
gest
pale
southern
ya
##iour
##uf
##hay
bell
##ieve
retain
scores
exter
props
blur
nevertheless
illness
responsibility
urge
companion
purchase
Streisand
accompanied
thumbs
Miles
Walt
wig
##iant
##bling
##eric
anx
unoriginal
settle
Brother
sounding
homeless
excruciating
considerable
similarities
silence
contrary
Train
bottle
Doug
architect
crucial
transformation
Ernest
website
nervous
Buster
Times
ease
fro
##gling
##orthy
inane
##alie
##ersh
plausible
##atched
upl
amuse
tea
Shame
instit
Scr
useful
advise
mentioning
##okey
Edgar
1972
survived
improve
Better
resemblance
beneath
REAL
vulgar
Charlotte
album
Recommended
Aug
Cool
Custer
Var
dating
dys
##itual
Thus
lip
##pel
intim
##plo
adul
awe
Stooges
slave
enjoys
excell
##arred
classes
creativity
developing
Isab
McK
prompt
Harvey
##ivalent
Simply
Graham
STAR
displayed
Sheriff
revolutionary
glasses
Nicholson
Spoilers
Either
Hop
hench
jer
taught
chann
arc
overrated
##quel
##izable
horrifying
strang
Bronson
subl
elimin
absent
##lands
misle
masterful
Troma
Perry
Advent
potentially
Snow
disappeared
translation
Francisco
dinosaurs
divorce
pretending
borrowed
Mas
Ok
jaw
lav
rug
sits
##oh
##can
##gle
##oup
bears
##alled
tends
flies
Sheen
lackl
climactic
trees
1930s
Adams
drops
hideous
Valent
Tyler
deliberately
journalist
Cher
Hills
Mind
houses
##UM
##bra
stir
##antom
league
##igner
prec
##ivals
characteristic
downhill
cheated
helpless
distingu
hilariously
focusing
gangsters
campa
blew
arrived
Hammer
Garfield
Robinson
Ellen
subplots
overwhelming
Baldwin
Cart
Div
Gib
ME
Southern
Town
Wag
ce
##bow
##bidden
##ione
staring
##amber
##ripp
##pled
resort
surpass
portion
couples
reflection
brutally
Jeffrey
education
Watson
advertising
Usually
Furthermore
citizens
Absolutely
Miyazaki
Bay
Crit
LOT
RO
##ucc
stark
##antee
##aux
adorable
directs
parties
defense
Price
practice
persu
progresses
troubles
Skip
helicopter
3rd
##uke
stilted
shake
interrupt
underlying
monot
guessed
Elvis
suggested
patients
unsatisf
##ropriately
Jesse
understated
formulaic
Commun
guests
puppets
nostalgia
Lemmon
rendition
abysmal
Kaz
MY
Major
Six
Warren
ath
fought
mile
##rome
##gate
chased
##ighty
divers
##ivable
##ographed
defined
##owski
illogical
treats
astron
nightmares
proceeds
Truly
riveting
ingredients
Several
irrelevant
channels
Aff
Buff
Daw
Kap
Niro
cos
pad
##rates
##UE
whim
##verted
##urance
sust
##road
##andon
##eryl
unrel
intimate
seeks
desired
schlock
coh
alongside
inferior
Everybody
wished
cinematographer
Harold
engross
NOTHING
closet
trashy
legit
suitable
Carradine
wounded
principal
exchange
Felix
Huston
tad
wore
##vo
repress
##ooby
armed
endure
flop
crush
##phant
trav
compens
Hero
futuristic
irres
undoubtedly
conditions
legal
drawing
Secondly
optim
ninja
Friends
phrase
Considering
Opera
Crawford
22
Cob
Funny
Pay
Rud
SN
Sold
garden
mail
##har
##ctors
##ousing
##acies
##enson
recyc
granted
attitudes
obtain
##onto
Neither
##ARD
laws
obsess
matches
prisoner
rolled
1968
1960s
Corman
frustration
buffs
unsettling
Bible
Duck
Dyl
Dutch
Holl
Middle
ritual
##gra
##bled
heat
dod
alas
##oples
##aped
laughably
understandable
Scot
lowest
sleaze
1996
mistress
contrad
Woods
embarrassment
joined
marketing
Title
corruption
guarantee
voiced
grotesque
Dylan
Actor
Break
Line
Naturally
Tam
Vo
san
yelling
##function
ther
##inity
##reens
##omers
reck
##acked
Spain
McL
capturing
weakest
1979
lands
Flash
Barney
Timothy
Jews
contempl
reunion
bonus
Iraq
inappropriate
Cab
Fast
Fish
Morm
Rene
egg
mate
pushing
sappy
tact
##dog
##nes
##AST
##pion
##lle
topless
forty
##rier
##icking
##arson
##rett
possibilities
namely
transition
pops
promises
Angels
avoided
hyper
Party
eaten
challenging
floating
Bullock
Phillip
executive
seventies
campaign
AM
Auss
Ca
Est
mund
rif
##hile
Thomp
lips
##ulated
orph
mankind
##force
fluff
gloss
excl
##ysis
Abb
condem
trailers
Fear
frequent
Waters
nomination
incompetent
artificial
Thompson
23
Cy
GOOD
Lone
banned
faster
rage
thugs
##itled
##iceless
##ids
assem
flood
comparing
newly
careful
cream
coast
Newman
##ypse
##ORE
Colin
backgrounds
historically
Afgh
remained
dimension
unexpl
Terrible
hints
motivations
beliefs
ensues
Bernard
ethnic
swimming
##ocalypse
candid
Psycho
Cut
Doo
Doc
Nathan
Que
aesth
dirt
tv
##uz
##uri
exquis
soci
##agues
outfit
##astically
##anges
Therefore
Joel
tripe
tribe
versus
Leigh
behave
##ggy
solution
senses
catching
limits
purposes
judging
remarkably
warmth
##plicity
mountains
Human
##ixties
nostalgic
Virginia
survivors
jewel
global
vulnerable
Patricia
Aaron
BR
Bark
Eis
Fans
Ly
wars
##icism
rein
##idy
##urai
plod
neur
pride
##acab
worlds
glim
Spock
Trans
Directed
closest
claimed
desperation
Iran
authority
Ba
Dig
Odd
aunt
sore
##zing
shod
##essa
priceless
thru
simult
relation
insist
musicians
waited
##engers
winter
photo
dancers
cleverly
Series
##shi
bedroom
foolish
faults
nerd
challenged
composer
Wonderful
Latin
Marshall
elegant
Jordan
August
dysfunction
##ploitation
June
Kent
Kyle
Meryl
PS
ponder
##creen
##ni
##riel
##gio
greatness
spoke
serving
awhile
viewings
persons
phony
Dee
refuge
passable
Somehow
Conrad
##ATE
yesterday
popularity
Craven
behaviour
substit
minimum
Writer
vaguely
hesit
gifted
conservative
unpredict
Professor
Gus
Pin
apt
bumbling
wis
##lines
##oral
##arity
##sect
analy
intric
consci
Sea
instinct
glamor
experimental
Scooby
##ixon
edit
generated
mode
valuable
1983
equivalent
engage
appreciation
depicting
Maggie
Eyes
purchased
Pictures
Turkish
pitiful
Inspector
showcase
incorpor
dreary
Game
Lif
Nap
cake
gor
rig
rail
vig
wax
##bird
##anie
##icol
##ayed
scope
enlight
cancer
claust
##ints
##forward
Should
slash
reads
Wells
##INE
1997
Quaid
Austin
represented
13th
correctly
Foxx
educational
##oneliness
NYC
ignorant
Classic
safety
Boo
Battle
Cook
Gere
Lie
Minn
Zero
lun
rul
rude
wishing
##utions
##ilight
##icker
##ccer
##ionship
performs
relatives
Scary
Christie
Carmen
introduce
rocket
kicking
Corb
dropping
##iseries
rotten
tiresome
Aks
Rings
museum
ranch
##AP
##ester
##enzo
##rell
##lem
##andra
##acks
unst
flag
miniseries
surg
##asha
leaders
indiffer
secondary
skate
refused
promised
resulting
respected
Project
arrival
Raymond
dressing
Spacey
Pete
pressure
choreographed
Central
Diana
Nicholas
wandering
tunes
Nolan
corporate
claustroph
Ak
Core
Ritter
Soph
Vol
baff
facing
max
##tw
##ueless
##ping
##idently
Theater
##robe
partners
##anging
Stay
Aliens
minus
indic
##attering
senseless
report
Pearl
Perfect
angst
adaptations
teaches
discovering
##haust
##anoia
Romero
incomprehensible
bargain
##vation
##uated
##book
##rem
rew
##seen
##ldom
deaf
perce
Inter
##acity
##acles
Shah
awake
##ocaust
sched
glorious
releases
suspicious
Joey
patience
Marty
Imp
halluc
Hopefully
indulgent
overacting
Venice
hippie
3000
Needless
wacky
Widmark
Bugs
Dall
Others
Pie
Ranger
Sem
loneliness
ties
von
##iti
asp
##amental
plat
ench
##inding
19th
lasted
acid
edgy
generations
##veloped
checked
Colonel
literature
tastes
Scottish
##ramer
wildly
property
riot
Peters
alcoholic
Natalie
integrity
##aghetti
unhappy
mundane
Apr
Cary
Hann
Homer
Mild
Oct
Roth
Tan
WIT
dances
warr
##iably
##girl
##burn
##HH
##ancing
rely
shameless
##unts
##ables
##lik
##amped
##rene
construction
Peck
boxing
expressed
bands
unden
reaching
##borg
satisfy
complaining
Judy
Judge
Salman
methods
Office
hungry
BIG
Ot
Pony
View
hokey
nuts
ok
ridden
##hr
##cha
##ested
##osis
##odile
fee
##apers
Champ
##izard
##issy
Donna
grabb
1971
##OUS
raises
package
exceptionally
Speaking
Rochester
nonsens
celebrity
stinks
Antonio
Gabriel
washed
travesty
CON
Eug
Gle
Jol
NBC
wolf
##box
##aters
##oto
plight
commend
unit
troops
pron
quotes
Shar
warming
Leo
Until
messed
##ushi
##ainsaw
landing
barrel
##shine
receives
Drake
##ylum
compelled
disappears
WHY
Kenneth
counterp
applaud
Stuart
Luckily
Bridges
unimagin
trivial
controlled
Fra
Gang
Mu
Sel
SEE
Valley
dazz
fingers
lately
loos
##nan
##IST
##icidal
stale
stream
doc
degr
dile
meand
##osc
showdown
quit
twin
wrench
awa
grass
reson
Brilliant
smell
exploration
##lied
##retched
experiments
visible
menace
household
antagon
ordered
premiere
spirits
questionable
##hears
catchy
Berlin
disgrace
intentionally
hurts
betrayal
disliked
alleged
Wagner
Voight
April
Citiz
Las
Vin
dud
mish
wides
##gom
##haw
##ji
##esc
butch
clip
realizing
Stock
recon
humble
##ubby
smiling
Legend
heading
Clay
centers
##engu
psychic
straightforward
combine
roller
moody
mysteries
##strong
conflicts
ONLY
overlook
manipulative
sneak
Cuba
Brooklyn
uplifting
orphan
Cli
Comb
Dance
Kin
Os
Rat
Sa
bite
tent
habit
enl
imper
##aware
slice
attrib
Sept
letters
entr
definition
romp
basket
##ennes
misery
valid
agenda
Crazy
fascinated
dresses
biography
Entertain
activities
resources
##onymous
History
Bettie
Bed
Farre
Happy
OR
Veron
Wy
WATCH
bump
fog
rings
tang
##oly
##hen
##atics
##orse
##thm
chess
exhaust
##opic
##igo
amid
invited
##life
Bean
visiting
photos
1993
secretly
repeating
jumped
Darkness
squad
objects
punishment
Harrison
surfing
geek
widely
Looking
civilization
##club
##AME
##ructive
exposition
excessive
severely
Aussie
Afghan
##gomery
Gam
Hmm
Rent
Side
Wel
Ze
bug
hitch
huh
lord
rav
roof
##fly
##UST
##zilla
##icable
##ota
abused
cloud
preced
##iley
differently
inducing
paranoia
visits
retired
exceptions
register
sensational
robots
regarded
objective
deranged
accomplish
Barrymore
Nicol
Stupid
publish
saga
Citizen
Heston
Irene
Soul
breed
cripp
darn
eats
rum
sill
##ois
##SI
##orney
select
suffic
doctors
abusive
unra
awfully
Stall
comedians
termin
nights
Screen
Gerald
tasteless
occasions
biased
##vira
chicken
Miike
Thankfully
pursuit
Montgomery
Hartley
Upon
obliv
Today
enthusiasm
tonight
assigned
Erika
Court
Rupert
vengeance
wisdom
75
Foot
Gentle
Hank
Jour
Main
Pulp
Rel
Wong
furn
lic
lam
##atable
stab
soccer
##elley
peak
##angel
##issa
smugg
##aneous
confidence
creator
suspend
##enna
1981
complexity
Bela
##udden
Gener
Terror
Dickens
mentions
hammer
Machine
comprom
astronaut
simultaneously
Action
Duch
Fisher
IF
Molly
Pen
Sell
Sudden
Tak
Vera
rates
##fl
##rent
##ALL
##enger
##onald
##eta
shif
##uries
chat
dele
neph
universal
simplicity
obst
completed
##lix
superhero
advanced
expand
Exorc
Simp
tracking
complaints
depression
Sarandon
companies
harmless
yellow
Network
neighbors
chooses
Blockbuster
muddled
Akshay
nephew
Fal
Fell
HE
gym
##mail
##mons
inability
online
ships
haired
chicks
##emesis
##geon
peoples
guards
tech
desires
evolution
insanity
musician
credited
misf
##ugging
1984
Samuel
debate
joins
witnesses
prepare
flee
alternate
Crystal
Awful
resurrect
sublime
Dawson
nonsensical
AD
Aunt
Rour
Sweet
Uwe
Von
Zone
caut
##AB
##beth
##emic
##unks
##iche
imitation
realm
similarly
invented
appropriately
##alsh
addiction
restored
Christians
demise
females
matched
masses
accuracy
Denzel
WHAT
Phillips
Astaire
Olivier
shouting
Dalton
analysis
fantasies
Lifetime
Eugene
95
Benn
Danger
Fore
Mam
Non
Naked
SF
Walsh
mates
om
wretched
##fest
##load
##zer
##zzy
##eson
##anc
##rehe
whis
active
##olate
unaware
flair
awak
##anski
recre
mayhem
decor
owners
Rev
Blond
##ucker
##annon
March
Spider
heartbreaking
behold
Among
Elvira
narrow
protest
referred
concepts
Empire
remarks
lengthy
accurately
Belushi
randomly
symbolic
Demons
improvement
landscapes
arguably
chapter
precisely
##heimer
gimmick
Following
misleading
Simpson
Rourke
Bost
Nik
cities
gam
narc
##ibe
##fare
##hoe
##uters
shed
screens
##irsty
directions
amused
##bergh
Beast
edition
##otta
passengers
murdering
steel
1978
1988
1987
stunned
businessman
##OULD
IMDB
circle
immediate
machines
industrial
loaded
banal
wrap
Priv
policeman
##elvet
Hughes
Hyde
Republic
fiancé
supreme
Robbins
Earl
Gay
Jenny
Kathy
Rid
Woo
Wait
map
##rows
##ori
##ersed
##istol
noises
arist
##isha
realised
olds
crazed
polished
Christina
doubts
1969
designs
Surely
resemble
confrontation
distribution
encourage
Studios
destroying
ambiguous
lackluster
Carly
COM
Eastern
Hick
HOR
WAY
ape
bones
dentist
fist
golf
raid
zoom
##eur
##case
##matic
##lam
##IF
##bly
##NING
##inch
##itable
static
forcing
conn
roots
shoulder
interests
parad
lively
Herz
Godzilla
surviving
teachers
Monty
masterpieces
operation
gems
gender
seduct
tacky
Midnight
Regard
Ultimately
unpredictable
Dud
Ill
Jos
Kramer
Lance
Native
filler
pour
ram
##oqu
##rr
##len
##yers
ster
##ulation
alleg
weather
unle
prob
grate
underwater
##xton
skull
##psons
demean
moronic
1973
1982
exped
signed
Direction
Horrible
##aliber
Carlos
Duv
##uppets
fifty
Jacob
lifted
coincidence
rendered
Egyptian
stumbled
Atlantis
therap
conscience
silliness
Bert
Box
Dia
Fur
HU
caliber
mute
##uate
##pes
##ko
##inations
stim
##cel
##amount
atroc
##agement
##ption
##abled
Stri
Stiller
vein
species
Alone
owned
recommendation
##ortune
nightclub
grainy
prize
pleasing
losers
homes
assumed
investigating
##IDS
WWE
substant
interactions
representation
injured
Bogart
exposure
Amazing
motorcy
dysfunctional
40s
Bever
Gw
Kitty
Less
Must
dur
pages
sixties
um
##da
##via
##uation
##icy
##ala
##astard
charged
unn
clueless
pock
##acher
entitled
counts
stranded
Conc
subjected
posted
Willie
balls
affairs
Rooney
primitive
princess
summar
quietly
significance
Detective
ignorance
adopted
END
judgment
adolescent
Cliff
unravel
Bus
Cand
Ginger
Kh
Kur
Muppet
Sop
Toy
Vince
mud
rising
##bone
##OD
##aning
##omy
shell
shares
outing
##apable
##assy
keen
delicate
##neyed
##gren
assured
portrayals
Edge
Conan
Warri
fascination
bleed
positively
##going
merits
##gency
##ifties
circus
##volta
preachy
empathy
Beatty
chuckle
fulfill
greedy
Hindi
admittedly
Kapoor
DEAD
Liv
WT
pump
tunn
ven
wander
##fast
##lins
##lli
toys
##aines
##agn
##umar
##auer
unseen
##pecting
##ipid
specially
Alive
Brady
triangle
explores
DVDs
delic
confir
confident
##ormal
##undant
dealer
##etto
devices
sensual
containing
historic
brutality
drinks
##avery
##warming
##omeday
choppy
deceased
Spirit
Ponyo
Herzog
30s
Beth
Creat
Fun
Gard
Govern
Lily
TW
UP
Viol
fox
lens
lunch
sor
vocal
waves
www
##ses
##VEN
##erness
##encer
##oving
##elia
depe
unlik
##oder
whats
##aping
prey
Chief
Storm
gray
startling
##ossibly
League
Clo
located
transformed
strongest
swallow
demented
oppress
milk
literary
1940s
Believe
authorities
Copp
lifeless
route
crashes
scarecrow
fundamental
Beauty
demonstrates
loyalty
obligatory
##iblical
Reeves
predecessor
shoddy
DID
Gray
Hogan
Loy
Tele
cath
foil
##gian
##HER
tooth
brood
##leans
##uting
Theat
org
##ando
##osing
overs
remem
drove
Frances
Beach
provocative
Robot
heartwarming
corpses
prominent
profanity
Simpsons
unlikeable
##oopers
Moreover
stopping
insightful
deriv
Clearly
Incred
domestic
puzzle
Olivia
Pierre
inconsistent
inaccurate
Cowboy
widescreen
Cop
Lup
Pu
Tat
billed
dreck
hi
pie
##mith
##AW
##enberg
ish
shared
dope
wholly
##oler
leather
disreg
##obby
span
insipid
lasting
Myr
tops
singers
memor
morbid
supported
Keep
sweat
teams
filling
1998
Saman
Whoever
inspire
Simmons
Nights
ambition
opportunities
assassination
hackneyed
rejected
venture
Temple
Brosnan
acclaimed
recycled
Mildred
Private
unlikable
CAN
Cze
Der
Got
Jill
Mort
Outer
Pig
Ut
Wish
barb
rational
##vance
##wright
##bast
##put
##ieves
sending
seldom
hears
abdu
outfits
##osterous
##osition
upst
##odder
twins
Shat
sometime
grief
shoulders
##tones
studying
locals
grabs
hopelessly
modest
infant
Danes
colon
posters
victory
##brid
Richardson
##EASE
##shell
threatens
describing
servant
knocked
Ronald
cracking
Mitchum
challenges
addicted
guarante
incorrect
Gregory
Carey
warrior
athlet
surgery
Cushing
Face
Kiss
Light
Mess
lush
mummy
vain
vice
##isy
##chor
##chen
shorter
sums
fren
##olk
##geant
##abh
twelve
##neath
poem
Inf
bless
##izer
##iped
exceed
exploring
Marx
refuse
1989
respective
marked
difficulties
Travolta
Glob
crossing
bombs
Know
internal
deserted
frightened
sacrific
enthr
option
kissing
screwed
birds
demanding
Cruise
Werewolf
caricature
devastating
contradict
Fool
Ja
Jod
PC
Pix
Rush
Ts
cem
cro
cope
hoot
##felt
##OY
##ndrome
##orus
brat
##omic
revers
##amin
##raw
proph
Whit
backs
remove
apoc
reader
Debb
morals
Orson
Trust
boom
1974
Gloria
Alec
1939
1945
unexpectedly
spring
previews
Amazon
firmly
wardrobe
spaceship
##icolor
Beverly
28
Dust
Early
Hat
Mol
bread
fart
kar
rag
wakes
##do
##rina
##pin
##ova
rehears
##chi
shaky
plag
##ensions
rope
slip
computers
supply
invites
##itsch
margin
heroin
housew
##iker
Conne
communicate
Rocky
Lauren
preferred
overlong
Masters
##warf
Hayworth
infected
rhythm
inexplicably
unexplained
Czech
AF
FIL
Si
Sara
Sleep
dimin
fuel
mort
pill
woe
##eches
##fan
##wan
##RY
brown
##leck
rever
rebel
formed
clad
##apse
##asses
Hend
strangers
newcom
considerably
solo
presenting
Abra
waitress
##comings
Emperor
preposterous
Montana
##ymour
Milo
##ukh
reflects
##THING
feminist
Gandhi
SNL
Debbie
Buse
IV
Jar
Kings
Rambo
Velvet
nick
pione
que
##zes
##ilation
selection
shaking
##ulating
##roe
##inds
pecul
blink
interrog
##cca
designer
grin
##ighters
##wear
resolved
incl
idol
##ashi
owns
biting
artsy
shortcomings
##yssey
##ologically
misgu
femme
psychology
Orleans
embark
respectable
1994
flashes
Goldberg
hostage
additional
Snipes
virtual
Damon
employed
Kidman
stretched
petty
cruelty
imaginable
Portug
Kurtz
MUST
WORST
September
Clooney
Coppola
derivative
Busey
500
Dow
Free
KN
Ri
bush
niece
rises
racing
##eor
##gun
##GH
##´t
##atoes
##orters
stare
##oodoo
##agle
##pton
##oyle
##prisingly
viewpoint
##liest
understands
visions
heartfelt
##inski
blackmail
uncover
continually
compliment
conviction
Quentin
identical
##gener
hypoc
Wilder
connections
emerges
paintings
Wendy
Domino
Sydney
Bakshi
Gibson
WITH
pronoun
Samantha
ACT
Cos
Hag
Hep
Hilton
Mem
Mob
Mountain
WE
bars
nails
##rough
##voc
##la
##TW
##IV
seam
shred
##rah
##andal
meas
procl
##ellig
perman
##plex
poker
Shot
slut
oriented
insists
entered
Seymour
Beh
visited
Close
blacks
drift
Amit
Richards
subtly
respectively
planes
Brain
wilderness
##cific
surroundings
disgusted
Apocalypse
Columbia
Dunne
Technically
destroys
weaknesses
censors
Dillon
amusement
Scotland
Stallone
deleted
Bug
Card
Gret
Hans
Oll
Post
Pfe
Poe
Sandy
ol
rides
vign
wire
wives
##cut
##set
##CR
bride
##etery
chills
worship
lect
disast
##phone
##getic
strings
chees
gloom
superst
skits
Carell
suspension
Paxton
sooner
destiny
##aude
ripping
Winters
Russo
Hayes
Verhoe
Spoiler
sketch
GOD
21st
steady
claustrophobic
Abraham
AS
Bird
Dy
Fan
Jaws
Kudos
OUT
duck
vital
##eon
##low
##AG
##orth
asylum
sharing
shoe
dose
##ookie
feast
##aved
##ocra
##ifi
Joh
audition
##ERT
##rup
refers
coat
coff
##ypsy
Firstly
filmmaking
acceptance
Actress
Irons
assuming
##alyptic
Daniels
breast
pushes
healthy
Savage
elevator
disguise
absorbed
suburban
rapidly
reluctant
aspiring
wrenching
Coun
Dest
Fight
Kle
Vill
fade
omin
##acious
##yard
##PP
##edge
##arse
stages
stores
scenar
thrilled
##ansas
remakes
101
youngest
helpful
distress
marries
Christine
morally
deserving
medic
1976
airport
Frankly
Twilight
attacking
##ermin
macho
Boyle
Louise
testament
discussing
Errol
mentality
hammy
Westerns
separated
Runner
Spring
##ttp
vibrant
Barker
##enguin
Verhoeven
ARE
Lund
Zoe
firing
http
mall
races
##ded
##eks
##mission
##iate
##FE
##MAN
##itated
##otten
##utor
reci
##aying
##ido
##kees
hapless
##ulent
abst
enig
##ardom
##ortions
advers
blues
afterward
backst
handling
##iculty
Sebast
giallo
topics
Spencer
schools
retire
motive
reported
airplane
survives
unsus
Actors
conduct
radical
Macbeth
programme
strengths
educated
ironically
inevitably
Costello
jealousy
PLEASE
uniformly
difficulty
unrelated
engrossing
exquisite
Amitabh
Awards
Hut
Lad
Lena
Leland
Powers
Tok
cattle
jarring
lol
lux
naught
natives
sale
##oard
##occ
##ups
##yo
##DER
Throw
##ioni
##umes
##ounded
clin
##icken
partially
Shark
##izz
attorney
casts
traits
Bron
submar
terrified
bitch
needless
expects
Scor
Prom
Preston
snuff
Dana
hilarity
Gerard
Neill
Phantom
conventions
babys
Bravo
Emil
recognizable
immortal
sticking
massacre
dragon
Polanski
absurdity
punches
layers
##ACE
Bonnie
consciousness
Lionel
tempted
##iblings
conveys
Ethan
Valentine
Boston
Diaz
peculiar
misguided
Ollie
##ocracy
AR
Bam
CL
Carn
Gos
Gable
Hulk
Ker
Pir
Sway
TC
bent
dates
pink
voted
##wich
##bie
##char
##cends
goers
prince
crisp
Sho
##ensen
speeches
##igned
proving
##ierce
##ampoon
messy
moder
regards
info
Herc
breakdown
eventual
descent
Paulie
Parad
err
Team
square
mirac
##itzer
kidnapping
coward
gentleman
pedest
canceled
mechanical
Brenda
crocodile
adulter
Hopkins
Dallas
Exorcist
Shatner
Body
Cou
Curse
Hom
Loc
bitten
cue
hers
mafia
siblings
##front
##UD
##IES
##pan
##inate
##ete
prepar
Interesting
Always
incon
##eworthy
invasion
camc
Left
glowing
couch
coaster
uncertain
effic
Edie
oppon
1986
hugely
forgiven
Schne
1959
Russians
##OOOO
statue
claiming
Christianity
autobi
Palma
balanced
hyped
taped
Wesley
fluid
ingenious
prejudice
aristocr
Duvall
apocalyptic
Pfeiffer
85
AIDS
Ble
Cro
Fact
Happ
Kline
Led
Mul
Na
Niel
Visc
Wright
fishing
harr
jaded
patch
pulp
voc
##ico
##lymp
##vell
frames
##isty
##umn
##feld
##gends
clone
quarter
thrust
adjust
##neck
##ober
##quin
backwards
underm
setup
helm
##aney
retros
##minger
moron
2008
promote
Serv
Glen
answered
receiving
Going
##IDE
Victorian
synth
accounts
admirable
Toronto
Armstrong
vastly
Character
enhanced
stumbles
Novak
tactics
rifle
skateboard
Afghanistan
Downey
Hepburn
Bunny
Few
Making
Mask
Zh
##atement
informed
##enton
framed
disci
popping
seeming
##athon
##urning
comprehe
smiles
lasts
instrum
Dec
standout
examination
collaps
avid
constit
##ART
1955
referring
publicity
compete
minority
savage
##affy
astounding
energetic
translated
contribution
fifth
homosexuality
Lambert
restrained
Casey
basketball
Sellers
FILM
Cel
Gir
Jur
Kung
bugs
coc
hides
kudos
rave
turd
vary
##fight
##ieval
##ovsky
atte
activity
neo
justified
##apid
themed
mins
underneath
contempt
##orders
entering
bothers
handles
indication
coupled
passage
region
##identally
News
inflict
Evans
1933
depths
midnight
ballet
Brig
defeated
spectacle
celebration
witches
fabric
Vampires
blatantly
Nolte
Normally
abruptly
Bacon
befriends
slimy
rebellious
frozen
expedition
guaranteed
Jed
Ko
Kansas
Lange
Pop
Poll
Piper
males
nurs
penn
tip
wield
##end
##vas
##uction
##Ar
##buck
##xter
##arious
belly
##chair
##rig
##ulse
##elic
upside
prequel
agency
##quer
##izoph
Alas
mayor
Bride
##azing
##itches
##onti
painter
uncut
roommate
##ANG
adventur
demonic
hangs
Eyre
Antonioni
Beatles
automatically
Ruby
satirical
motorcycle
BS
Haines
Mall
bot
gambling
sized
someday
##mel
##master
##gles
##IRE
##bi
##bul
##enes
##oura
##omber
aboard
outright
Ingr
##orsese
dont
factors
##azor
epit
improb
University
definitive
##orky
Mend
transpl
commenting
1977
##bye
suggestion
##OUR
immature
request
melanch
Giant
miracle
Zombies
sitcoms
Enterprise
Country
anticipation
caricatures
Randolph
Episod
shopping
dilemma
depends
proclaim
##izophren
4th
Bard
Cron
Cube
Gill
Gro
HK
Kind
Logan
Malt
Tiger
gained
hollow
ie
lion
masc
votes
##rary
##DS
##erve
##inction
##enix
##aro
##arters
##render
stardom
##ulations
##usters
outer
anyways
overse
##quette
remade
slack
underworld
incidents
Asia
##ubble
restrict
glued
Scorsese
commits
budgets
assure
##ypical
Anyways
1991
convinces
accepts
Paramount
Express
records
approaches
Agent
Cohen
biopic
Connor
Doris
Preminger
nerves
Surv
depending
sincerely
Technicolor
stylized
tossed
inhabitants
Eisenstein
unimaginative
Farrell
Batt
GR
Hir
Mick
Voy
rats
rabbit
##eve
##foot
##uary
##inist
##stan
##ainted
intentional
##ayson
disin
users
spree
rooting
underwear
reliable
Clive
Grudge
cultures
premier
belt
raising
error
Melville
practical
Giov
Toole
cleaning
pilots
Janet
emerge
chopped
Cannon
wanders
conveniently
phenomenon
culmin
sarcastic
Pyth
Revolution
duration
Swayze
Ingrid
Away
Gor
Gall
Hollow
Ming
Moe
Olymp
TIM
bul
cad
fo
jock
ling
pic
##days
##mary
##rants
##ouge
##ieg
doom
meal
unem
disabled
realization
spont
screenwriters
Revenge
glance
Noah
##axy
Meet
boasts
##ORY
Worse
combines
mixing
babe
babies
windows
approaching
informative
suitably
threatened
Didn
Showtime
privile
Fuller
offend
linked
Ashley
tolerable
Cannes
Animal
Ironically
limitations
exterior
Isabelle
Mormon
Corey
disastrous
camcorder
Aven
Bass
Hur
Lim
Ocean
Soder
Toni
Work
Wrest
aer
hust
mast
vomit
##PER
##enne
shining
shaped
##usively
##uments
##inks
impe
overp
##owned
attach
entirety
studied
Prison
psyched
reports
repulsive
angels
meteor
sensible
literal
flashy
programs
continuing
Teen
millionaire
Sanders
rescued
praised
tourist
Written
Rosemary
fleet
##burg
authenticity
Company
cooking
masks
Modesty
Production
adopt
Depard
Sisters
dubious
fortunate
pattern
Gilbert
Faith
cohes
Nicolas
Theatre
Cir
Fab
Hou
Ivan
July
Same
Sue
Together
Vaugh
glee
nit
zone
##bourne
##NA
Thorn
stairs
##amo
cher
##rain
##ulously
##ppers
diverse
goods
flim
horny
residents
decap
trials
##anky
expectation
Reagan
Justice
Grinch
Diamond
aircraft
expense
damaged
colleagues
undead
legacy
mannerisms
Strong
escaping
implied
rounded
departure
Cassidy
despicable
injust
tapes
Rhett
rewarding
cycle
disguised
convicted
iconic
Pierce
Juan
politicians
Ninja
echo
mesmerizing
undercover
unsuspecting
Visconti
Boring
CBS
Gate
Gersh
Him
Laugh
Pose
Pass
Raw
Und
WR
fifties
pomp
rer
##west
##sch
token
##ician
forbidden
butler
##roit
fruit
##opard
lend
##oda
characterizations
spine
##epers
crashing
Stand
subtext
Begin
##ographical
monkeys
copied
consideration
##INK
Meat
transf
1985
expose
Jules
Color
decidedly
Monroe
Small
estr
approx
pornography
delightfully
stunningly
Laurence
Lester
Palance
nominations
Royal
WHO
vehicles
contribute
nerve
enthusiastic
Portman
isolation
altered
fiancée
phenomenal
Kahn
regularly
stroke
beside
TCM
Dist
Dumb
Dolph
Fon
Gund
Lans
Tour
Tale
bike
cage
math
pimp
yard
##mind
##tr
##ware
##bon
##zie
##ati
##asi
##stin
stumble
selected
##tered
##riz
wholes
conj
##umming
##osawa
##acking
goals
endlessly
##tec
##avin
quant
##ailing
musc
smug
handic
assert
retrie
Pacific
cliches
boxer
Brave
Evan
Trail
approached
mercy
##ITY
Holocaust
gear
McCoy
tendency
earnest
confronted
wounds
commitment
tremendously
Sounds
pretends
deliberate
convenient
Hotel
Ricci
choosing
sympathize
conclude
FROM
paranoid
intricate
Bennett
Bun
Barn
Corn
Kumar
Lock
Mack
Mummy
Muppets
Tales
Termin
biol
fires
fathers
hires
hij
vile
##tick
##uber
##gi
##ho
insec
items
##idan
outline
##avia
realistically
spaghetti
interior
Stop
recur
##ockey
Alison
oldest
trace
farmer
craz
buzz
elite
possession
Marg
masters
##ikes
Amir
destined
respects
reminder
Guess
1936
cartoonish
##REE
affects
harass
mediocr
growth
Holy
Wrong
##ucci
banter
dismal
Lois
funding
controversy
##RIBLE
concentrate
exploding
aggressive
Supporting
satisfaction
published
grateful
Kurosawa
brooding
cemetery
DJ
Lives
Loved
Pra
Pak
Ske
faint
fierce
oo
pals
sir
##ev
##vability
##born
##FUL
inherent
heir
##rio
attended
manif
##odox
overbe
##iana
1000
readers
##itionally
Reid
delicious
academy
##ractive
Within
promoted
existing
patron
dolls
crossed
MacD
fatale
##ASS
Carla
Basinger
freaking
deny
pathos
youthful
sells
pursued
boost
translate
##burne
fetish
stalking
scariest
demonstrate
filth
biker
enhance
Romeo
hunters
detectives
unsatisfying
obsessive
aesthetic
vigil
misfortune
disregard
housewife
27
Dixon
Gadget
IQ
Kra
Lest
Rusty
Tiny
bald
bulk
caps
drew
ec
loop
yawn
##col
##wing
##ALLY
##TT
##hart
##arer
##angh
##owed
rewr
shift
scored
orange
university
intro
Whoop
##inky
oversh
adore
##intage
blunt
Shelley
horrified
incapable
Joanna
invention
insu
insurance
artwork
commander
bashing
Everett
McA
unconscious
Key
Admitted
posing
questioning
accepting
Travis
brainless
Crisp
judged
criticize
mouths
mouthed
wisely
preparing
Mencia
insights
determination
hooker
sinking
divorced
Juliette
eternal
axe
Original
stabbed
Elliott
institution
maxim
Regardless
ominous
abstract
Depardieu
Ebert
Fitz
Mouse
Number
NIGHT
SW
Sor
Ustin
Wol
Yu
bim
bully
jet
nic
woo
##mers
##say
##gas
##AH
##hal
##athing
##esar
##chant
##eted
seedy
havoc
unatt
##uded
overbl
Chamber
Heck
longing
DeN
entries
Isn
Danish
swearing
1975
destructive
##oulies
Goodman
##OUN
sickening
exploits
Garland
Lynn
mutant
switched
loath
neatly
masoch
Sunshine
HAVE
bounty
Marlon
accessible
inexplicable
Scrooge
Affleck
sorely
shifts
remembers
comprehend
##Arthur
overbearing
Admittedly
Ustinov
AV
Dial
Fever
Fried
Files
Gree
Kerm
Lon
Palt
Yep
cries
natured
nemesis
rose
voodoo
wider
##fman
##but
##busters
##pit
##atile
##enan
##oust
##isk
##icia
haunt
plate
##ardo
charms
percent
perception
##pling
##ishop
plotting
minister
apply
buys
Thats
Whenever
schizophren
polar
discern
##ethe
Edison
psyche
existential
##pending
Vanessa
delighted
STILL
interviewed
##ITE
Knox
freaks
kidnap
explosive
pursue
contributed
safely
Hawk
calcul
Cinemat
Miranda
rainy
dominated
parallels
outdated
hippies
Potter
Fantastic
##idelity
suspicion
acknowled
sabot
relentless
monologue
sustain
neurotic
Entertainment
medicine
Python
Ban
Cec
Gig
Lass
Lola
Malk
Rabbit
Sig
akin
cents
east
gee
rapp
sought
tire
ware
##dam
##flix
##gence
##bach
##pa
##encing
insect
brow
##uten
##oval
wastes
##emp
sugar
alley
abortion
degener
likewise
##osal
realities
recreat
decline
##arrot
insom
appeals
Seems
relevance
centre
Nev
fills
adaption
##backs
societ
meantime
##OOK
##royd
Redford
grounds
replies
##ITT
##blah
comparisons
##ICK
sources
Darwin
penal
ensure
Malone
associate
organized
colours
YOUR
Collins
inspirational
holy
eternity
owes
characteristics
glamorous
dazzling
HUGE
karate
Terminator
mediocrity
Kermit
Paltrow
Dol
Istan
Jet
Junior
Lead
Mot
Rory
Wax
Wyn
WILL
bol
frog
jam
mim
mol
mothers
nun
ost
pound
session
##cus
##lishing
##orous
##asco
##stood
reign
##ooo
anc
sem
heels
##empl
##quire
flavor
Sharon
##athom
slam
Alvin
##issance
applied
mighty
Segal
extensive
distraction
Claus
studies
Jackass
morons
stuffed
medieval
poses
payoff
Monkey
avoiding
Letter
debt
Madsen
##borough
suspected
Polish
ripoff
divided
Sherlock
unconv
encountered
advertised
MUCH
Bridget
inherit
Lowe
observation
wheelchair
Clarke
Joyce
Otto
caution
Dustin
Behind
vignettes
scenarios
improbable
masturb
overblown
Istanbul
Bos
Dame
Diet
Darren
Hold
HOW
Kol
Oth
Pros
Sirk
TER
Wing
aute
goo
wagon
##mund
##wer
##URE
##jah
thieves
item
##ilmer
##cending
##keeper
exempl
##ussy
deem
likeable
##umi
unsc
perverse
Anders
reserved
longest
classy
Dexter
Rebe
define
headache
linear
drab
paints
Geoff
curtain
Truth
husbands
##ATH
Luis
embrace
Coming
Complete
unsure
communication
MacArthur
resembling
aiming
employee
fields
abandon
experiencing
fraud
Chucky
conveyed
Attack
pirate
##ufact
legitimate
undeniably
license
Suddenly
impecc
DeNiro
Dress
FL
Fut
Hi
Hug
MAD
Sty
dwell
gaps
hats
##cript
##fish
##wolves
##gt
##bral
##esa
##otch
scandal
sober
weary
neut
anytime
Whilst
##ureau
peril
arty
##ava
##avan
##assin
intertw
Shadow
inclusion
traffic
explode
imaginary
conco
McQ
Hara
boast
landmark
eyebr
Mostly
damned
ghetto
collective
statements
imprison
crosses
breathing
Indiana
noticeable
establishing
grip
Farley
principle
photographs
##ymph
screwball
Casper
Korea
arguments
garner
survivor
dumped
prospect
WARNING
gestures
repressed
grabbed
Schneider
harrowing
Belle
Ein
Job
Kau
Name
Nurse
Roe
Vic
bree
billing
dwarf
hatch
hott
pans
sanity
upt
vintage
##eze
##math
##irect
##rs
##lake
##anu
inad
inmates
begging
stap
##amiliar
butcher
##emen
##elope
scant
##oodle
##anton
##astroph
congr
unl
intoler
##placed
disres
disorder
agon
veget
Front
downs
believability
##azard
subc
handy
confuse
reviewed
Scenes
Arquette
Stefan
skilled
critique
steer
##STER
Adrian
embra
1990s
seasoned
sensation
##OUSE
Finn
1934
colleague
neglect
##omaniac
hybrid
midst
Melissa
demonst
##kinson
verbal
distracted
swords
inexper
Poir
tomorrow
cyborg
jacket
absorbing
sailor
Totally
Israeli
champion
lighter
Lumet
nauseating
crippled
Sopran
Lundgren
Soderbergh
Carson
FO
Fil
Gina
Jen
Lil
List
Wang
junior
pause
sane
##eer
##wered
##uv
##IVE
##FT
thunder
theories
##vez
chorus
##unes
abound
unsy
##avier
##pered
##izza
slaves
resume
newer
righte
hardship
cinemas
##aha
daylight
Leg
monk
dramatically
fanatic
Marine
deterior
videot
swing
##arbor
##ronic
cheaply
weaker
sentences
landed
Schwar
##heart
communist
sucker
rapist
Goes
exploited
insults
Speed
##impy
Kris
discussed
qualify
mirrors
veterans
peaceful
Lucille
Running
volume
composition
arguing
possesses
##mpathetic
politician
Fields
Vivian
sentimentality
cigarette
Abbott
assembled
gorilla
Kinne
naughty
Hercules
estranged
Othello
Sopranos
26
BOR
DR
Effect
Este
Fem
Jude
Kilmer
fodder
ridd
tin
##areness
##iture
##itors
##asia
##otism
shades
liqu
##herd
Chainsaw
agony
flowing
##berry
Stella
pointing
subway
origins
##atively
schol
##umbo
eleven
##atti
titular
depra
unfamiliar
advised
masterfully
##unker
Herbert
swept
spiral
Simple
Sergio
condu
achieves
embarrassingly
diner
daddy
intensely
##innie
rounds
routines
understatement
##umentary
tickets
injury
cameraman
Curly
rewarded
Knightley
Straight
Fantasy
immigrant
Pamela
lavish
Soldier
indifferent
seductive
psychedelic
Vaughn
Kinnear
3D
Boss
Born
Cros
Dale
Kam
Kinski
Mond
Mik
Maur
Niven
Norton
PA
Pope
Rest
Saving
Tow
Wedding
Zor
bum
dil
ic
melt
pistol
ray
##mony
##will
##wick
##pond
##EAR
##ouri
##aris
##itivity
##utive
whiny
##estion
##unte
abund
diab
intact
##awl
cram
aftermath
slapped
surrender
##bey
finishing
rightly
defies
glaring
Ark
Spade
remembering
locate
admired
colored
shocks
Elm
1992
theatres
1957
Monkees
frontal
north
melting
##worthy
auto
benef
benefits
Miami
skinny
Deliver
Hawai
advertis
uniforms
filthy
Urban
Aztec
glimpses
Journey
Nonetheless
pocket
WTF
Lupino
Tokyo
pedestrian
flimsy
Cecil
Barr
CAR
Doyle
Hob
Hands
Pitch
Test
Vi
Vac
Wizard
Zane
gate
##mod
##inently
##anza
##omination
whining
rear
stake
stagger
angu
seas
seats
##urg
notices
noteworthy
##auc
manic
##ige
##oyant
##cile
twent
blamed
flames
##phia
Heather
awareness
resident
complet
ideals
DeM
Debra
artistry
Weaver
Regin
##arnation
Step
draft
transp
redundant
Granger
Gromit
telephone
##irties
Filmed
robbers
Willard
products
Stephanie
Hello
synch
Liber
sprink
gigantic
tolerance
profoundly
Modern
garage
assignment
trauma
taxi
rampage
##ihil
bewild
tormented
Leno
acknowledge
promptly
##uccess
Sophie
##anghai
demonstrated
unsympathetic
Bess
Cell
Dur
Due
Gov
Ki
Match
NOW
Pars
Rig
Vs
honey
mold
nymph
piv
sou
sigh
wart
##oi
##dan
##moil
##inian
##anth
##otal
##adel
stair
streak
##una
coma
##agraph
##fell
flip
Alicia
##ection
downfall
esquire
subdu
##eadle
Blues
Lex
Scare
skit
murky
Clara
Christy
McN
dealers
Grayson
Place
motif
constra
sweeping
novelty
variation
campus
introducing
Monica
Patty
physics
neglected
catalog
catastroph
arriving
Goldie
mysteriously
assumes
Brien
Holm
influential
##veyard
Room
establishment
Compared
Ricky
##achelor
acquired
Turkey
Costner
addressed
Jersey
Shepherd
senior
Communist
meandering
Penelope
substantial
submarine
Service
Gundam
Lansbury
Malkovich
##blahblah
Cort
Fo
Games
Lib
Moses
Nas
Ritch
Tara
dashing
erupt
joint
##pons
##erner
##asse
##enth
##imi
libert
##emost
##ptical
lean
leap
lends
legends
prow
##forming
##ianist
spout
playful
##taine
Shining
yours
slide
trains
factual
goings
evokes
##xtap
##ignific
Leave
excuses
Robertson
Order
resulted
illusion
1953
Madison
Timber
puppy
ineffect
##OWN
affecting
numbing
investigator
cells
celebrated
employees
unwilling
turmoil
mythology
cookie
Million
Independ
Sweden
feminine
Marlow
Georgia
##ciless
salesman
settled
exclusively
Napole
slashers
Jolie
tunnel
Television
newcomer
coffin
Cronenberg
unattractive
unconventional
Dietrich
inadvert
BU
Drey
Dante
Esc
Hawn
Lab
Log
Maj
Mandy
Nina
Nero
Paz
VCR
Yan
bod
bubble
faded
mour
oct
salt
soooo
vic
void
##ua
##In
##hist
##inness
##infeld
branch
##otting
chill
##ags
outcast
##ptuous
##igning
##uend
clash
##oured
offbeat
Chip
poll
characterisation
flows
descend
undert
##ifty
apes
evidently
##oots
instances
Depress
##erto
parodies
experts
disco
reflected
elephant
generate
romances
Micheal
swamp
admission
McM
##tersweet
Pho
Benny
villainous
rolls
capacity
unsuccess
packs
groundbreaking
Silent
Silence
verb
Additionally
unforg
Ferr
Producer
betrayed
LOVED
chaotic
principals
Sabrina
Bacall
beware
fragile
intimid
Coburn
lunatic
furniture
KNOW
enigmatic
Schwarz
36
42
Bah
Bishop
Cobb
Gung
Hers
Hence
LOL
Money
Rosen
Rukh
Sond
Sgt
Tyr
Vance
WOW
Zell
dut
eh
pier
panic
rant
rack
sided
##rimin
##ui
##piece
##inarily
##ouement
bearing
whore
reverse
##ador
stoned
##eled
socially
plants
##arty
##atell
##andro
quint
Cheadle
Inv
##uller
Heath
##ilyn
deciding
produces
smash
camps
letdown
disconne
starters
##IND
McB
##iking
varied
payche
innuend
covering
convention
suggesting
##offerson
##ILD
robber
##heads
extrav
Timon
sucking
complained
Henri
witnessing
Boone
freaky
unusually
layered
boob
tightly
organization
juxtap
kingdom
Dogs
admiration
loan
empath
BLOOD
vividly
taboo
patriotic
fortunately
economic
cerebral
climbing
optimistic
Holland
##birds
October
Sebastian
Fontaine
AB
Fern
Lomb
Mau
Vent
bible
cob
od
wings
##cake
##nity
##lest
##po
thug
##child
foremost
chim
frantic
##aints
##agging
##astly
digging
unnatural
tramp
thereby
clerk
quasi
##ryn
##assic
ads
Chaney
##obia
spies
flamb
crown
Fritz
bittersweet
##opez
indicate
Dear
##tenborough
versa
reviewing
concl
motions
##umpy
cliched
##ARK
reminding
nonex
Guys
mystical
dumbest
depictions
Berke
Burg
boarding
sync
sincer
Surprisingly
seduce
circles
cruise
Grier
battling
Detroit
subsequently
Drive
Norma
Lucio
McLag
discipl
##utenant
ancest
Kaufman
Bul
Birth
Fort
Fass
FUN
Garden
Hand
Nan
Pas
PBS
SOME
Tier
bastard
cater
cunning
dv
pose
royal
rambling
taut
##ii
##lord
##EM
##encies
##ington
##arish
stations
moviego
ala
union
unans
##uder
manufact
clunky
array
##mented
sporting
Shanghai
##atha
strung
##iah
##redited
parade
paragraph
Arch
elected
gravity
lightning
##ternal
transvest
transcend
snaps
uncanny
Gein
Herman
momentum
profile
Const
Warhol
##lights
caper
1967
##anche
##ylock
bombing
fools
denouement
##ICE
knocks
##developed
Ghoulies
courtesy
snowman
Airport
Airplane
Returns
##thearted
warns
Kristofferson
captivated
bikini
eagerly
ambiguity
feeding
explodes
immigrants
samurai
incestuous
misunderstood
voyage
monoton
reckless
plodding
antagonist
entrance
Episode
Rebecca
righteous
Crosby
Zellwe
Ald
Bre
Brett
Gust
Hooper
Kas
Lopez
Oft
Offic
Puppet
Wa
Yok
pod
rivals
tant
tub
tatt
witted
##eid
##fty
##uer
##uces
##binder
##hin
##hot
##hur
brav
##utt
##ularly
deft
univers
upcoming
baddies
##awned
Shin
Shawn
Shemp
gris
specul
resolve
muscle
considers
comeback
shotgun
revis
meanwhile
confession
followers
predictably
##onesome
Paula
Guest
girlfriends
##comes
Baron
chemical
189
nuanced
##ridge
stretches
Fiennes
rebels
volunte
sophom
hysterically
anticipated
shrink
scratching
furious
sarcasm
updated
warrant
feeble
deliciously
Government
gloomy
Whoopi
overshadow
warehouse
auteur
congrat
disrespect
subdued
Ritchie
Timberlake
Phoenix
nonexistent
Ay
Gol
Hem
Kon
Opp
Rated
Sissy
burd
cod
dumber
tones
toned
tube
woven
##graph
##zard
##HO
reinc
##imately
##idences
shirts
##ria
alert
##aka
enact
##arde
##ardon
timed
manne
prosec
##odore
pressed
##ittingly
Chand
Chab
Chang
poke
##ilda
emperor
Review
##apture
glam
coup
Attenborough
committing
promot
construct
##version
complications
##oebe
mixes
##arthy
Stargate
sleeps
controls
summed
punct
Basic
Basil
Philadel
Denis
Apple
##uppert
verge
targets
hinted
DOES
protection
despise
fleshed
Rodney
Calig
scarier
preaching
policy
participate
contestants
announce
officials
sketches
Georges
lurking
chewing
lighthearted
excruciatingly
excellently
henchmen
Renee
Glenda
amidst
narciss
Gwyn
inclined
County
wielding
mascul
Vacation
wartime
Tierney
Cave
Dern
DAY
Firth
Host
JUST
Kir
Lamb
Mab
Patter
Porter
Rath
Rangers
Saint
Ugh
grey
laser
rab
sau
##lings
##bits
##anes
##asper
brush
stubb
heap
##rof
sock
##active
##olis
##igans
fever
##itte
overweight
Interest
spider
wherever
youngsters
smarter
##uger
DeV
article
foundation
regime
Islam
Edwards
occult
##played
Peggy
##guard
destination
hateful
Disc
climatic
Crime
Problem
##ermaid
midget
STORY
joining
comparable
nuances
Liu
mobile
Romance
##OLD
parking
consequence
populated
maintains
distinctive
superflu
executives
cheerful
Atlantic
rendering
Netflix
Springer
Brendan
Purple
rehash
Hackman
inserted
Dominic
ceiling
interrupted
cosm
dodgy
perceived
Hannah
attending
Bunuel
unanswered
Bing
Budd
Biko
Double
Mafia
Polly
biblical
fence
goss
hating
rips
rousing
##gud
##NY
##ischer
##itan
Ther
reform
heights
butter
##eling
prank
##abilities
clarity
pee
##quet
spit
interv
playboy
crooked
##ensed
underdeveloped
screened
readily
epics
cracks
Seinfeld
Beeth
##ahmer
daytime
##umbs
confined
##uese
missile
##ceptive
openly
THEY
##oids
blooded
centuries
admits
Grim
##enez
psychologist
shootout
profit
sleeve
shockingly
forgets
narrated
Sammy
camping
Guard
##respond
##OUT
Emmy
esteem
Horse
##ISS
mannered
Angelo
Alexandra
Coast
hostile
bias
clubs
ordeal
mutual
increase
Malcol
switches
courtroom
salv
environmental
unclear
expertly
##uhi
rejects
boots
customers
Cannibal
Buy
tuned
observe
Internet
Driver
occupied
arrang
Total
inaccuracies
Odyssey
cursed
Gamera
pompous
penalty
pivotal
Fassbinder
grisly
Philadelphia
Malcolm
AK
Cult
Easy
Fors
Jungle
Kor
Pure
Possibly
Sas
Turt
Um
Uh
ber
hills
roughly
##dict
##vi
##inge
##leen
beef
Thur
stating
staging
exit
##odo
##oding
##itto
quot
offense
Chin
flour
download
releasing
distinction
hopeful
corrid
pains
murderers
swinging
Godard
solved
forgetting
Guinness
Northern
##EAM
1951
Finney
1944
Redgra
Stranger
servants
progressed
progression
Susp
Ramon
targeted
Hawke
manipulation
Lorre
obscene
obscurity
##aaaa
Sundance
prostitution
dynamics
pitched
Brazilian
nutshell
facility
resistance
engineer
judgement
Bryn
dictator
warriors
##avalry
Squad
excellence
compensate
Fishburne
candidate
Boogie
schedule
Duchov
retrospect
unemploy
wholesome
maximum
Berkeley
McLaglen
Often
37
73
Camb
Creek
Dw
Gillian
Hilar
Huppert
Makes
Mered
Nig
Nope
POW
RK
Rice
Raid
UF
Zize
bubb
borders
gre
mand
vibe
##moon
##lain
##lies
##zi
##yy
##hib
##EL
##10
##inqu
##esse
##itarian
##utcher
##aders
##ooke
attain
framing
upbeat
proced
enduring
peers
popped
##ulliver
Stick
grind
##nings
##bec
esp
cheering
inspector
scripting
Marilyn
Steele
distaste
graveyard
severed
Pride
##enegger
repair
##upacab
Franklin
Byr
Exper
sensitivity
authors
babes
Crash
ignoring
stereotyped
drawings
criticized
Snake
symbols
Lindsay
Demon
increasing
Center
SHOW
palace
prostitutes
Jacques
festivals
custom
Antw
professionals
begs
Audrey
replacement
Pickford
orchestra
hypnotic
anxious
Critters
irresist
hesitate
enchanting
therapy
Myrna
cocaine
injustice
Poirot
Naschy
Lombard
Redgrave
Meredith
Zizek
CO
Hil
HELL
Henson
Mos
Ride
Taking
bats
macab
nations
pounds
ta
uh
vault
##nik
##after
##rim
##gs
##TY
theor
##reement
beard
##etics
stag
##imated
foresh
filmography
##illusion
##essions
sheep
##cible
client
americ
Shop
Shannon
##ensibly
slob
relating
phase
extract
acad
coke
Somebody
snipp
magically
Plenty
Pee
slept
Phoebe
devotion
Mori
##END
invested
revolving
1941
Whereas
Boyer
luckily
merciless
Burke
favourites
Giallo
WW2
sights
ladder
Greene
derived
civilians
boobs
nightmarish
250
hurry
gathering
arranged
relaxed
Evelyn
prolong
##istencies
Almighty
henchman
Adventures
##pionage
Esther
substitute
sufficient
Jodie
Portuguese
Jurassic
liberties
sincerity
Antwone
macabre
Aj
Aster
Bh
BTW
Cond
Dene
Daffy
EV
GI
OH
Raim
SEA
Tone
Tilly
Uma
Zeal
cough
gap
heter
loon
mum
padd
papers
pizza
sorrow
##uire
##TAIN
##NN
##kas
##PS
##rete
##omon
##leman
Thief
##steps
reper
reception
##adium
anach
scam
unjust
prest
##inea
pref
playwright
fled
flock
Shoot
Shylock
drill
##ailed
##ounting
decad
espionage
##ibbe
accord
instruct
##oker
##landish
dragging
Michel
collar
predic
McIn
Edmund
Keanu
Elmer
gangs
freeze
raunch
intend
1966
unders
pornographic
1942
programming
Wayans
Pleas
services
celebrities
Palest
fuzzy
ninet
Raines
emphasize
outset
acquaint
sinks
billion
transferred
sandwich
threads
trivia
controlling
observations
transported
hypnot
anthology
recruit
carnage
sociopath
oblivious
Gentlemen
Nielsen
TIME
Lestat
Cinematography
abundance
Patterson
Rathbone
Moriarty
91
Cain
GET
Hass
Hale
Ky
Katherine
Lenn
MO
Pap
Pry
Penguin
Tad
TOO
Vader
Zeta
greet
gadget
nast
raging
razor
sang
##cen
##with
##wide
##uelle
##ECT
thirties
todays
##ieving
Thin
##stop
stor
aspir
shar
##uru
##raged
##ulpt
sculpt
plug
abomination
dive
mega
##osuke
##atcher
unner
feud
##ogen
##avour
quarters
ample
##izon
remorse
desk
resent
reserv
compon
highway
cheat
##iba
sexist
borrows
marvell
straw
Anything
Warning
##ageddon
forgiveness
pleasures
Sche
Gooding
treas
##iminal
limp
Greatest
traditions
homo
languages
undes
identified
officially
stepmother
proportions
spotted
##OMB
Barbra
pairing
paths
Cassie
bearable
Loretta
Romanian
Romania
Using
shelter
stalked
tolerate
yells
counting
begun
inconsistencies
prologue
unimpress
Extreme
Sylvia
paranormal
exploitative
relentlessly
Corbett
Fellini
Kingsley
melancholy
Posey
Einstein
quintess
monotonous
Zellweger
superfluous
Brynner
AG
Bava
Cody
Giel
HAL
Lt
Lub
MP
NAS
Om
Omen
Rio
Tiff
Yell
aided
gent
gamb
hunted
trop
##ties
##rust
##uve
##TS
##IOUS
##bro
##DY
##inson
##ority
##aringly
##utors
##iem
Thor
##imo
haird
##olo
##arting
charges
clan
Chow
Chop
##aches
bloss
##enses
Stal
backed
190
slower
drum
trave
Brent
eval
insignific
##luded
titill
##aturity
##cessarily
snappy
Gram
fairness
##ienced
motel
##mmm
nearest
periods
1958
1956
##affe
Flat
Europeans
ambitions
##enaissance
Slaughter
burnt
18th
Snakes
mentor
##oshi
McCarthy
achievements
crafts
Lastly
Prem
interpretations
ensue
principles
crucif
Rodri
ninety
cynicism
##RAP
masked
distributed
skeptical
robbed
participants
unfolding
traumatic
chapters
bucket
economy
reluctantly
whims
Rudy
Cabin
clouds
obstacles
Zoey
Gershwin
manifest
McQueen
DeVito
400
74
Bone
Bomb
Cu
Hav
HOUSE
Mama
OVER
RA
Rol
Tib
Touch
Vig
bio
ger
hollywood
jury
ma
vapid
zany
##iator
##rations
##bed
##MA
##oupe
##itous
##itives
##itals
informs
reass
##ayer
wast
ants
atomic
frat
abroad
##olini
deck
##oused
outlandish
##iston
trump
prone
##abul
perverted
impending
overwr
spons
flashing
crank
surgeon
evoke
evolved
compreh
bitchy
invite
hardest
hardened
scriptwriter
careless
Seed
phones
Dece
Webb
##ahan
##woods
talkie
Score
detached
edges
failures
transpar
listened
Dancing
effortlessly
similarity
Exam
ghastly
repeats
1932
ignores
1948
1949
##ausibility
Angelina
bombed
spotlight
Slow
Particul
Walking
divine
tempor
mobster
pursuing
improvised
Getting
Looney
applies
wrestler
Caroline
dedication
custody
dominate
Armageddon
ALERT
Reno
bowl
candle
smoothly
Bryan
Faye
crawl
monologues
Oddly
Dudley
recurring
vigilante
Schwarzenegger
anachron
AH
Brew
Cim
Gulliver
Honey
Late
Mut
Omar
SA
Swe
Selle
Tell
dorm
faux
nifty
##ias
##fights
##bot
##bians
##jim
theft
thesp
##essel
##enheimer
whist
whale
whites
##uled
##elf
##aggy
##aund
enforce
##igs
goat
clay
perplex
werewolves
##manuelle
overst
overtones
Invis
flame
crushed
##pectives
##vester
incom
##azar
bigot
secure
Sheila
Shearer
Deanna
artif
extr
happenings
##anni
discount
Ariel
stupidest
drain
deadpan
Isa
transforms
earliest
Peace
Truman
Italians
Floyd
sickness
Euro
sleepwalk
1947
terrorism
remainder
breathe
Imper
insulted
Babette
Camera
sunny
laying
Winner
assistance
spoofs
confronts
tacked
Doesn
Vincenzo
admirer
idealistic
Wonderland
casually
skeleton
Daddy
Studio
announced
gathered
McDonald
tables
consumed
Bachchan
carnival
instincts
gymn
atrocity
Incredible
nickn
Locke
Deliverance
Govinda
inadvertently
##atellite
stubborn
Thurman
Gielgud
Ax
Ced
Cumm
Fry
Fido
Hospital
Kel
KILL
Lov
Mis
Nag
Nash
Pic
Roose
Soc
Ton
Wahl
aven
baked
duel
file
fades
rib
sins
tro
##rase
##gor
##ener
##anor
withd
sections
suave
alarm
##arte
unqu
unappe
##igious
##oya
clo
greats
##pering
disillusion
##orski
flirt
flipping
crooks
slavery
##wee
##avez
##velt
##arrow
trigger
##lesh
##orde
Rele
Script
Clock
seriousness
##axploitation
awfulness
advances
administ
escal
##ARY
##ARE
illumin
Kingdom
perspectives
Broken
##blum
qualifies
independence
kidnaps
Ess
Bloody
crashed
mutil
motivated
penet
contributes
unintellig
manipulated
circa
boundaries
##burgh
mythical
criticisms
incidentally
fixed
puzzled
Capote
Vega
Kathryn
Elephant
electricity
Marcus
Elliot
stirring
Combs
Warrior
Scorpion
reruns
handicapped
conclusions
UFO
Invisible
Cummings
Roosevelt
unappealing
Aut
Dahmer
Freak
Fanny
Lets
Poke
bay
bureau
soup
wreak
##mber
##rice
##bour
##py
##isi
##icion
##leader
##immer
anchor
##irling
notor
comr
alar
digress
##ffiti
##cifully
overboard
Chavez
realises
##pres
spoon
Stack
##ocop
traps
Debor
Weird
Bloom
##lude
Spy
deputy
captive
2009
villagers
strained
telegraph
Neal
spoiling
avoids
watered
1965
Chevy
accidental
Swanson
squir
influences
bosses
Roh
Harriet
Garner
marketed
displaying
Camilla
denied
crowded
knocking
##ACT
significantly
networks
nerdy
##ulsion
degrees
switching
incidental
accompanying
distinctly
007
arrogance
traumat
outlaw
Shepard
Toby
Hungarian
rugby
diversity
irrespons
eggs
counterpart
counterparts
confirmed
Pixar
semblance
impeccable
Future
Hugo
uptight
Dreyf
Depression
Interestingly
gossip
RKO
Deneuve
Lubitsch
Deborah
Bil
Bax
Dove
Daughter
Daf
Fars
Lampoon
Lonesome
Panic
Sit
Sense
Sunny
Tro
bench
goth
hug
maj
publ
sly
##din
##dess
##ao
##aise
##rin
##vous
##vard
##gically
##UP
##bill
##EY
##Fi
##jas
##icz
##ieth
rework
##vet
shakes
shifting
##usch
diver
##ablan
##inkle
knees
pole
bloke
flower
Shore
grating
##weigh
excels
originals
consult
articul
lethal
##ERO
schm
Levin
portions
Scene
##ceptions
retreat
Somewhere
##screen
transitions
Prime
##enchant
infinitely
Amber
winners
Adri
largest
Exec
ruining
Desper
Enough
Cheung
1943
radiation
Strat
burns
implies
Ernie
irritated
explanations
unnecessarily
McCl
Judith
Ramsey
Hallmark
Lorenzo
necessity
##volent
Sonny
Duncan
preacher
scheming
Rhys
courageous
Daisy
observed
##falls
sacrifices
Kathleen
groan
Elijah
glossy
unstable
awaiting
retirement
aerial
Houston
Kolch
subconscious
synchron
Beethoven
Yellow
##ablanca
Cunning
Dien
Mast
Penny
SG
Sup
fighters
lays
lists
turb
vessel
##opp
##oors
##db
##cape
##nel
##iuses
##uu
##banks
##pest
##hole
##inating
##inished
##ingle
##onies
inch
##owulf
heal
##ersp
choc
chock
suicidal
scattered
scarred
##aku
deer
deception
##opus
##inee
##prom
flowers
Shock
awry
##ometown
wherein
underdog
keys
appet
Beowulf
eloqu
Reb
Bland
paraph
##iterate
missions
talky
unfinished
collapse
developments
redneck
Edith
##iki
Pegg
Perkins
novelist
Samurai
boxes
truths
Benj
stripped
Martino
homoph
##asket
##RED
unde
judges
Irwin
Knowing
conflicted
wisecra
hosts
Between
elementary
Apes
Winter
temple
determine
Huh
uneasy
liner
Loren
Rickman
tomb
Milland
robbing
unremark
overwhelm
chuckles
Andreas
counsel
imitate
Randall
laboratory
labeled
update
jerky
distinguished
padding
Semit
##girls
Veronica
Klein
penned
adventurous
bimbo
schizophrenic
deemed
Estevez
Asterix
Selleck
Dafoe
BEA
BET
Cord
Dak
Dirk
Flesh
Hour
JO
Mans
Murd
Mae
Passion
Sic
Sort
Twe
Wai
dang
ranging
saint
turt
vag
wink
##iations
##fighter
##lund
tho
##inter
##itier
##ilian
##owder
Theodore
chip
##cking
##rap
##actica
##olving
##antically
##agged
dipl
diale
digest
##manship
##quatch
Butter
intersp
crass
Stro
backwoods
decency
chef
##ibi
needing
kindly
Web
##umbled
Noel
wrongly
##otti
##ennium
ridicul
infuri
Amen
steaming
##maker
drugged
IMO
Norwe
operating
hairy
investment
1946
identities
weekly
##iscover
systems
puns
serials
paired
Laurie
##market
celebrate
risks
insanely
subtitled
structured
suffice
Command
tackle
marrying
Merchant
spinning
Casablanca
shelves
applause
Poitier
sparks
scarce
casino
Charlton
Kristin
##walker
citizen
lurid
Katie
Open
responds
Kazan
Soldiers
condemned
Minnelli
WRONG
Geoffrey
american
December
Wahlberg
BO
Bath
Bew
Eight
Fame
Fine
HIS
Jared
Nar
Oak
Occ
PE
Pere
Sieg
Ull
bash
dawn
dangers
fuss
gown
gypsy
hometown
lac
pup
riff
sack
wiped
##taker
##hard
##hanger
##ZZ
##orical
##asily
brun
##ilia
whe
##amm
##think
chau
chops
##raiser
##unce
##olin
##akis
##artment
worm
manners
click
##ogyn
Init
Inside
##olland
funky
spawned
Heat
Streets
##urned
relates
kindness
##anka
interestingly
Sox
Forrest
creations
##umbles
monstr
##ructor
asset
distorted
examine
correspond
violently
lightly
bloodsh
Prov
supportive
##OTHER
Conroy
shocker
sweethe
##ilipp
creeps
combining
truthful
closure
homicidal
competing
balloon
Alexand
testing
spectrum
lengths
splitting
SciFi
forties
kidnapp
##guez
Sheridan
Ramones
surrealism
Masterson
Dario
Thriller
Humph
choir
admirably
shuttle
##iju
mocking
policemen
masquer
commanding
puzzling
Coleman
Fairbanks
automatic
Rowlands
restraint
Muslims
Buffy
Impact
commendable
allegedly
Ratso
demeanor
Violence
Connectic
capsule
Wynorski
Letterman
overshadowed
Duchovny
##upacabra
Hilary
Zealand
Scheider
Cedric
Society
Cunningham
98
Ariz
Bang
CR
Cover
Egg
Gilliam
Judd
Kil
KING
Ped
Pun
TN
Ugly
Zen
apl
dy
dual
eer
gau
pant
vet
##rument
##xy
##ingo
##arin
##itel
##iell
##owa
relying
stakes
##urable
watcher
arbit
lovingly
quaint
throne
disrupt
##acht
bliss
slips
drool
email
reasoning
Seuss
Seattle
##ucks
Marvin
skipping
retelling
passive
promotion
##ANK
##ATION
dreamy
predicted
treating
protective
Moran
Trap
operate
Patient
projection
1938
Billie
Karate
searched
Goldblum
continuous
Krue
lifel
defending
virtue
blockbusters
Winchester
recalls
##AMP
representative
kisses
concentration
coincidences
Solomon
Metal
##ocratic
LIFE
neighbour
Eleanor
drowned
Sydow
pirates
slaughtered
Confeder
Fallon
Sylvester
diamonds
distinguish
Divine
railroad
Clayton
##icycle
TWO
athletic
recipe
Paradise
lingering
cohesive
Braveheart
insomnia
staple
DeMille
paycheck
flamboyant
##enezuel
Forsy
unnerving
Particularly
Pokemon
Kolchak
33
CSI
Jagger
Kies
Kerr
LE
Lili
Rug
SM
Sle
Singer
Tome
Vinnie
Went
avenge
eld
kinky
lumin
nihil
pap
pipe
tiss
##dain
##tz
##rise
##hl
##CA
##LS
##PR
##PD
##ón
##inous
##lete
##uta
##enting
chop
##pelled
##ulu
goodbye
trim
tricked
##igley
##ickering
##ourse
peek
quib
##gins
interplay
crud
yourselves
slot
undergo
incess
downtown
beforehand
subs
accus
induced
Bear
instrument
understandably
Atwill
Marcel
Arist
Noir
counted
Meh
##ynes
misogyn
Michaels
Grad
uncredited
breakfast
reprodu
coolest
techno
Suff
Twin
stripper
shameful
##ISH
rapes
amateurs
tested
Jefferson
Mission
foreb
john
Apoll
sunk
Walters
Darcy
lesbians
representing
saloon
mindset
accompany
Scarface
schemes
overacts
Daily
Fujim
adequately
phrases
Reeve
AWFUL
predecessors
encouraged
conveying
Thunderbirds
stabbing
Veronika
Screenplay
astronauts
plagued
censorship
luxury
miraculously
MacDonald
insuffer
imprisoned
Mabel
Cambod
Lennon
marvellous
overwrought
Benjamin
Connecticut
39
Coc
Crew
Durb
Iv
Il
Lot
Mong
Tomb
Towers
Vers
Vert
bills
caf
mount
py
parrot
satellite
vaude
zeal
##aith
##fting
##loe
##AGE
##holland
##FF
##atomy
##street
stable
stance
shady
##riages
##pended
##akable
##opes
##ooker
prover
##oyote
arrow
endured
preval
Chen
functions
##ighth
classified
commission
Arkin
defining
retro
waist
impressions
swift
cannon
column
sleeper
Tramp
dreaming
solving
talentless
##OND
Lukas
##anyon
Morning
##ambles
madman
1963
fashions
ambiance
Freddie
Drag
roads
Coen
trusted
Syb
penis
Wilde
categories
Zombi
Killers
Brandon
cousins
unrec
domain
sophistication
Fourth
outdoor
McDowell
exhilar
Lucky
incompetence
boiled
culpr
resource
AWAY
compassionate
ceremony
Klaus
misunderstand
gesture
Adventure
Championship
recreate
bleeding
colonial
hypocris
permanent
Hutton
instruments
varying
transplant
Chamberlain
##ITTLE
ostensibly
Holden
inexperienced
Maurice
Napoleon
tattoo
Nigel
Byrne
raunchy
quintessential
Rodriguez
whimsical
Farscape
Arizona
48
Berry
DC
Ecc
Gon
Keller
Mand
Pau
Rach
Rah
Ridd
Tort
bout
hooks
laced
maturity
tep
tits
voting
waters
yarn
##dad
##aft
##ti
##vyn
##sa
##gard
##SS
##IZ
##hoff
##OCK
##kill
##jor
##inth
##lex
ongoing
stal
noting
##people
placing
##akers
deed
##ista
conform
justification
upro
managing
##abby
overused
overnight
dispar
usage
Into
##fork
##obs
##obile
Butt
Staling
underused
attic
mush
Brooke
Anto
revival
Forbidden
Ally
versatile
Blank
##owering
skating
Carroll
Meyer
misplaced
snoo
supports
Heroes
Amato
Britney
##ATING
##ORT
Schum
milit
suggestive
Exc
treach
expresses
robotic
1931
fiasco
Crist
idioc
gods
finishes
Roach
Denver
##bbing
archet
archae
electroc
protecting
dismember
Commander
Trier
giggle
worrying
Anti
Solo
magazines
psychiatric
enormously
Kathar
nailed
vulnerability
launched
drowning
##crows
collaboration
Clarence
encourages
Visually
anxiety
rugged
##lemite
butchered
Forever
dopey
autobiography
Ledger
skateboarding
retrieve
Greece
neutral
Scarecrow
constraints
disconnected
Officer
unremarkable
bloodshed
Krueger
Suffice
foreboding
66
Cly
Elect
Eagle
Flying
Hun
Hidden
Lill
Lara
Listen
Mish
Mills
Por
Pumb
Rider
Tap
ah
doo
gust
hunk
loner
owe
silli
vanity
wipe
##mun
##tail
##rom
##rion
##lowski
##OID
brick
##leg
stern
##idays
analog
anonymous
##illes
##through
##unct
scree
exuber
allies
weep
weigh
##herence
convert
contend
clums
Chance
Chloe
amnes
##quake
Butch
spice
tended
awarded
##ensively
somethings
strate
famed
didnt
traitor
believer
##azed
consumm
Bend
entertains
imply
Reality
Levy
monks
confirm
defy
yearning
##annah
##itched
viscer
discl
skipped
election
##gerald
sniff
morph
infilt
annoyance
strain
Dolemite
Anyhow
Harlow
Drama
protot
sentenced
potent
intelligently
Colomb
trek
sensibility
weirdness
Instinct
collector
revolting
Deadly
MacL
##ylon
ghostly
Slo
##ASH
##writing
Hardly
##regor
denying
Shakespearean
intellectually
earns
January
uncomprom
Colle
BEST
Midler
dependent
showcases
tower
widowed
renowned
vengeful
tools
Mathieu
dishon
Crowe
Dolls
eliminated
ruled
Puerto
Globe
Gosling
efficient
Zhang
botched
Fitzgerald
diabol
Raimi
transparent
Baxter
Durbin
prevalent
Stalingrad
Bou
Coo
Canyon
Dubl
Dressed
Dassin
FIN
Fingers
Guns
Nine
POS
Rif
WANT
Yul
dw
dash
dunn
fold
goose
hockey
joking
mig
maze
nt
nap
poo
sway
tam
waking
##cat
##tub
##folk
##bble
##bound
##breed
##kh
##arians
##icating
##uto
##etch
##idor
##ilmore
shoved
healing
whod
output
unav
feared
##ffaut
##ells
##cipher
theirs
##tegr
crus
plotted
evac
evocative
##ugitive
caret
revive
instructor
Wee
elusive
delve
monst
superl
Marines
Arnie
animators
synd
smallest
lightweight
##ologies
purple
promoting
Trouble
cheaper
predictability
deepest
premises
Morse
Parents
lawn
Glad
fascist
fiery
collecting
torturing
bullies
occurring
Booth
dreadfully
Musical
disappearing
nuance
crowds
Syndrome
Liam
prints
manipulate
extraordinarily
##burst
volumes
bonding
outrageously
stalker
throats
ANYTHING
buttons
Cindy
BLACK
borderline
cancelled
occupation
illustrate
corporation
bursts
dismissed
Silverman
rampant
Square
Supposed
Queens
shamelessly
Geraldine
sacrificed
enthralling
Village
clinic
spontaneous
Dressler
anguish
Bulgar
Lambs
Hilarious
irresistible
irresponsible
interspersed
Alexandre
Bir
Bynes
Caps
Dodge
Hos
Maz
MON
MORE
PO
Pil
Pad
Pull
Press
PER
Public
SL
Stern
Tunes
barte
fathom
lure
muted
nuns
vit
##oj
##mat
##fig
##rational
##some
##lma
##bar
##pah
thri
##isle
##omi
##oming
stew
stadium
habits
##thought
##thodox
##rock
plung
worms
herd
mech
uned
unhe
thereof
imdb
Chiba
amoral
guid
spur
sparse
interp
horn
desolate
tragically
keeper
Anita
rightfully
mustache
Sheba
Forest
Reese
meanings
delinqu
budding
Leone
confines
standpoint
sites
imagining
Spinal
ski
march
syndrome
grain
drifter
dripping
regain
Ish
fantastically
mastermind
curiously
documents
breakthrough
psychologically
boards
Tomorrow
Sammo
engagement
signature
IMHO
Schrad
stereo
Glass
brainw
150
MacM
Berk
Bergen
punish
punks
artistically
stoic
##terested
tedium
Demi
buffalo
Olsen
armor
associates
Jessie
bags
Freud
1920s
Diego
Hadley
Natasha
empire
reunite
overwhelmed
inhabited
Wouldn
##amorph
praying
patriarch
ratio
saddest
gallery
condemn
Generation
Carlyle
stimulating
Creature
interrogation
videotape
BORING
Maureen
Ventura
Caligula
academic
heterosexual
padded
insignificant
incomplete
brunette
unrecogn
Dublin
bartender
5th
Cah
Darth
Flight
Favor
Hels
HOT
Kne
LITTLE
OZ
Pia
Seth
Tag
Tax
Tai
gently
hal
penchant
vanish
wits
##ear
##cie
##iam
##ré
##rings
##spe
##smith
##Tube
##eries
##esque
##itage
##stage
##ovan
replay
stumbling
shenan
##thirsty
chalk
##rigan
dock
ploy
alot
##usingly
outburst
##umental
##osa
intros
clut
badness
aggra
amok
##forman
##ileen
##awd
blames
Butler
teamed
rooted
recoll
##ifiable
casted
trait
Bridge
YouTube
Aniston
smar
carpet
warfare
Allan
Reiser
episodic
Around
Cloud
histrion
Carole
drivers
darkly
Charley
misc
Prisc
succession
infat
Mayor
Plane
Kee
##atsu
Adele
positions
gunsh
airing
sensibilities
Monsters
unsur
negot
Switzer
radar
Irving
##iversary
raping
continuously
STR
numbingly
Slater
Agatha
punished
opposition
laden
consisting
friendships
LaB
tourists
digit
buffoon
accomplishment
witchcraft
junkie
Catwoman
Jacobi
simpler
concentrates
declared
Truffaut
Cuban
globe
Creep
renew
Erik
rebellion
architecture
strangest
eliminate
Cartoon
Nathaniel
enlighten
baffled
reconc
hitchh
Generally
awakening
conniving
AFTER
lecture
adultery
Jedi
fleeting
biological
Pakistan
AVOID
scholars
Monday
discipline
prolonged
diplom
##aithful
hypocrisy
tepid
Schumacher
Priscilla
Ach
Aver
Ack
Bag
Dir
Easily
Gut
Horn
Kutcher
Lap
Rip
SS
Want
Wins
Zach
dun
jar
lull
litter
ranting
sib
##iot
##rine
##IAN
##kan
##eningly
toe
##rek
##otton
stitches
##imony
Thelma
shud
##riers
##roid
dol
##usional
defect
worries
##asting
diving
leaps
thereafter
clients
arise
##rection
imple
##aco
Starring
backyard
gruff
slang
genetic
fewer
orient
trips
supplies
warped
runaway
extrem
marathon
behalf
concrete
Caribbe
stares
formal
stepped
sweep
##ORD
embod
irrational
complains
Nora
lawyers
##hearted
##sworthy
expressing
expressive
limbs
Serge
Sergeant
emotionless
1962
Cheers
sleepy
##parents
requis
searches
Goldsworthy
mercen
aficion
correctness
Garcia
Trem
rescues
##ALK
relieved
civilian
mobsters
interpreted
funds
Rae
gasp
palp
Calvin
revelations
NEW
mockery
reunited
Ida
Gabrie
Predict
LIKE
tenderness
DEATH
disappearance
##vania
prejudices
gimmicks
humiliation
unpre
echoes
steamy
retains
Massey
exhausted
Welcome
ravishing
expanded
allegory
Concorde
upstairs
Greta
Emilio
epitome
Mendes
overseas
Crispin
Prosper
Zorro
icons
innuendo
dvd
transvestite
##hurst
Chandler
Pryor
##withstanding
enforcement
dialect
##ijuana
College
Capshaw
Schrader
smarmy
Bly
DU
Dies
Dude
Dahl
FF
Find
GIR
Gilmore
HO
Harbor
MR
Rave
Sr
Spl
Sween
Sosuke
Vick
Venezuel
Word
Wife
WERE
Words
Yuk
Zep
barn
cert
dared
dung
hunky
jol
pond
pianist
rod
sord
somber
tint
##rator
##wald
##uild
##lia
##gid
##gone
##SH
##armed
inade
##remes
Thurs
##etle
##ayne
seed
##irteen
shiny
shouts
haph
##thia
chamber
##ulking
##ustomed
##rops
exorc
external
abomin
##antasm
##akingly
enfor
diary
charity
##geist
knack
pearl
baddie
disdain
interf
crook
crummy
##phem
gren
spelling
spelled
Brits
compares
Anil
cheats
##rosity
Lear
paras
monumental
supermarket
Robocop
Arts
Noon
depri
formid
snatch
infidelity
colonel
dreamed
Philipp
bodyguard
freely
Byron
Colman
climate
Angie
Quigley
operas
bothering
##comed
richly
costuming
##aska
revolve
Timmy
##zzzz
achieving
Strangers
consisted
consistency
Hellraiser
denial
aims
##yrinth
Denise
layer
bankrupt
magnificently
bathtub
Castro
daft
salvation
skillfully
compositions
Playing
maintained
Rainbow
Jacqu
##ijay
Dieter
illustrates
temptation
November
attendant
outlook
pacif
squeeze
Reading
graduate
Oprah
Congress
optimism
jewelry
Iranian
aptly
baffling
Welch
paradise
Josie
atrocities
Gardner
woefully
synthes
BSG
scantily
unsuccessful
unforgivable
duties
glamour
monstrous
sweetheart
Vertigo
proverb
stalwart
inadequ
haphazard
34
88
Burn
Bank
BAB
Dim
Fed
Ga
Gian
Kos
Kirst
Mist
Manson
Pav
Sak
Silly
Til
Treat
Tina
Vitt
bark
bachelor
ecl
gum
groom
lob
loot
lyn
rode
rogue
tiger
tensions
wed
wizard
##coon
##mart
##rane
##uits
##lay
##leston
##IEN
##bes
##yman
##MM
##ère
thwart
##aria
whip
reappe
shrew
##urally
lizard
notions
noticing
ate
##oli
##ppings
devious
##asted
##ichi
unres
manga
##ongru
##igator
feisty
nob
##abouts
perf
perme
knee
##ourge
disfig
blo
spared
tease
serum
slows
happier
##alker
downbeat
Britt
relied
suppress
supporters
complement
appalled
##redit
Weap
Leary
Married
budgeted
menu
marital
coin
passenger
examined
powerfully
predator
##rifically
commentators
honorable
Plain
typecast
Keitel
Ada
Disappoint
Schm
Twelve
Colbert
1952
Afro
##uffs
condes
##OOM
blends
Matte
tests
replacing
Belg
magician
implications
disasters
Connie
grips
verdict
Winston
priests
Ellis
options
Cleop
Raoul
links
outsider
fulfilled
Griffin
professionally
stylistic
sailors
##AAAA
Joshua
Department
pauses
imitating
championship
Galactica
graduation
Senator
trendy
Dinosaur
apologize
Magnific
conquer
cannibalism
surpasses
surpassed
Buffalo
Cobra
imperfect
oblivion
compromise
opponents
Surviv
approximately
discernible
Hawaii
Parsons
Escape
Gunga
prefers
predicament
Initially
idiocy
Katharine
visceral
sordid
Bunch
Bino
Delt
Ged
Gert
HIGH
Kom
Kron
LOOK
Ner
Possible
RV
Renaissance
Sax
Tall
Ung
Zucc
aura
cues
crop
diction
gn
laps
lump
loom
mortal
rust
satur
tennis
wry
woke
waving
wires
warden
##des
##daughter
##AK
##bre
##bath
##panic
##yon
##atum
##isive
##isure
oft
##see
washing
##ithe
##cey
shattering
##urro
##illo
sue
scan
socks
alluring
##osity
pranks
persec
knight
adored
partial
Ing
blade
grant
##ubs
bites
smack
screenplays
classmates
Seen
impre
##ahon
tyr
Blob
placement
Universe
THINK
Marisa
##uthor
behaves
syrup
drained
Caron
snap
##ANE
locales
##ritical
Suz
creepiness
Above
USS
Traffic
cleverness
Smart
grandson
intends
Patton
1964
Worlds
puke
formerly
Melbourne
Corpor
WWF
thankful
Jewel
Carlito
contempor
preferably
pathetically
deservedly
Damn
Damned
##holm
Peterson
electronic
penny
fictitious
companions
Cassel
maintaining
rotting
rivalry
customs
lifts
irrever
adept
uninspiring
Renoir
untr
lyrical
inherited
devastated
SCR
Trying
recovered
patterns
Langdon
Congo
cursing
Originally
overtly
satisfactory
intimacy
Hannibal
attributes
Gentleman
Warriors
rehearsal
pronounced
Brigitte
##lestar
moviegoers
salvage
temporarily
artifact
Essentially
Kieslowski
archetyp
Clyde
gusto
guidance
Taxi
shenanigans
Caribbean
requisite
Cleopatra
Magnificent
64
Bin
Cyn
Fury
Gyll
Hair
Liter
Luther
MJ
Natural
Og
Torn
Wald
Yas
bickering
fave
foster
navy
ounce
tread
valley
##bay
##pool
##jack
##atical
##anne
##asian
##iege
Than
stature
##verts
##amen
##amura
shore
shack
shrie
doses
soaked
##ptions
upbr
##elled
##cio
##ondo
willingly
##ivated
twe
Chad
blob
blessed
sergeant
Stacy
Starting
slipped
incongru
stricken
##iban
needlessly
kiddie
delusional
parod
restore
presume
##ksen
##luding
##amese
homework
locale
darkest
##iefer
finely
uncont
##ienne
Harlin
##uggish
Pauline
engulf
Moving
Grave
grandma
struggled
uniquely
Alej
##boat
Rockne
wildlife
Melody
Melvyn
forehead
threats
offerings
surrounds
Dukes
spectacularly
employs
Jenna
Northam
Liotta
sacred
turgid
locks
goofs
ringing
Nickel
Valerie
circuit
colourful
grossly
marvelously
quirks
cringing
rejection
Incidentally
Sonja
exaggeration
stalks
farmers
Milligan
guardian
bathing
Cruz
Cruel
Animation
fulfilling
Fairy
Marlene
##idelines
pigs
astonishingly
humiliating
Talbot
EVERYTHING
voyeur
refugee
indicates
Falcon
fleeing
unleashed
enthralled
cheesiness
Ironside
preparation
premiered
sabotage
unlucky
Towards
Gwyneth
Hostel
rabid
Suspense
mandatory
##lemania
nineties
Tiffany
articulate
chocolate
turtle
Mishima
uncompromising
Supposedly
Switzerland
sibling
Binoche
impregn
Gyllen
31
86
AC
BY
Buch
Cause
COULD
Equ
Fly
Farn
Gates
HER
Lame
Might
Mull
Mile
Nation
Pers
Rarely
Tin
Tess
Tark
Tucker
Vice
Wu
WB
Yard
Zel
athe
dense
dime
dudes
data
fable
fated
gull
gosh
lap
osc
poop
pawn
rabb
tas
vind
viv
##oz
##tire
##uy
##IX
##pal
bravery
brisk
whine
##storm
##etra
##send
##irious
##kee
##uro
##thood
chainsaw
aloof
##antine
##aget
##oped
conte
##ortment
trench
##odes
Whale
pervert
peasant
##awning
interven
Shrek
##pha
##ansom
##ocation
Alain
Alright
drastically
evolve
triple
smashing
farc
worldwide
cleans
Allison
Revol
Blunt
polite
monitor
THREE
acrob
giants
Archie
assortment
refund
heartless
marriages
suspended
messing
cutter
democracy
snail
Gee
annoys
colony
footsteps
##ypo
Keira
##ifications
stepping
booth
boats
devote
futile
Elton
##oticed
equals
oddball
Suzan
Guinea
Expl
Similarly
Quick
##sworth
##lett
Enemy
recognise
debacle
Lovely
mercifully
loudly
STUP
keyboard
##odeon
softcore
WWI
Superb
discussions
virtues
tragedies
aimless
duplic
awkwardly
Joanne
cracked
funded
organic
warnings
ninjas
torch
welcomed
Minister
bondage
skelet
Capra
cocky
enhances
convicts
galaxy
Wendigo
Fleischer
relaxing
plantation
chronological
hoodl
Becky
Beckins
concludes
unmist
gifts
microph
rushes
prevents
Extras
adolesc
Shaun
Minnie
indifference
platform
smuggling
unnoticed
Sharky
moderately
opponent
Mulholland
Celest
Bardem
disintegr
privilege
hustler
Tourist
garnered
octopus
sophomoric
AKA
unemployed
Dwight
distasteful
snippets
AHEAD
Cimino
Dreyfuss
Dakota
Tomei
palpable
formidable
Zucco
Suzanne
29
Ace
Catch
Cock
DI
Duff
Daph
Gypo
Kiefer
MER
MIN
Mighty
NC
Nixon
Pert
QU
Rib
Rouge
WA
Wagon
bury
fisher
frig
gays
hiring
jan
rud
raving
ranges
sap
vot
##cano
##run
##uki
##lk
##lad
##gotten
##ROR
##TE
##post
##hou
##human
##kar
##PT
##icher
bef
##step
stomp
##amas
semin
shuff
chains
christ
##riad
##unge
weed
weaves
deformed
deeds
##opa
##opal
tran
goer
clar
knives
Chong
amiable
##acey
guided
tearing
##phony
Stol
backing
traff
decay
geniuses
idyll
##iality
compound
Anand
entity
Ator
discon
Clos
##renal
Manos
##iddy
Carm
transcends
Englund
##ypher
Performan
positives
subtlet
forgiving
questioned
Likewise
operatic
witless
thirds
unspe
familiarity
traveled
stereotyping
spliced
Kruger
##ippi
Magic
highlighted
Connors
##ICT
punchline
##haal
mutants
emptiness
civilized
Demme
speechless
categor
circumstance
juice
myths
exposing
##inspotting
Ashton
upsetting
addresses
##adda
Philippe
##ugosl
Ident
sharks
infectious
Tempest
prolific
sample
Barton
impersonation
rehab
glorified
blurred
jerks
lava
monotone
hallucinations
attributed
Hmmm
stabs
Blondell
supremely
summarize
marginal
superstar
Couple
Homicide
acknowledged
eyebrows
hardships
Theresa
gadgets
travelling
gymnast
unquestion
undeveloped
Eccleston
Rachael
clumsily
Helsing
Jacqueline
Delta
upbringing
Gyllenhaal
Daphne
BA
Bauer
Hig
ID
Looks
Mead
Mount
Mister
Morton
Mosc
Saud
Trey
VS
Vern
Wanda
batter
cgi
eastern
hind
las
laz
lamb
ration
tiring
##tale
##iates
##ruder
##vised
##she
##lman
##gart
##gage
##zum
##ME
##PLE
thirst
##itness
brim
broth
##leine
##otted
rept
reply
reels
stunk
##raine
planted
##olia
##oping
herrings
converted
##andez
##osyn
canon
mane
troupe
##oying
imb
##avian
Chupacabra
poking
partying
intermin
##atham
underwhel
drummer
subvers
Anchor
##ibals
##cedes
carriage
Rea
glow
Spark
Noble
##ysh
##ggie
starving
Megan
ridic
sidewalk
demol
Plummer
critically
prominently
##ronting
reporters
Doom
speaker
Harper
##oaded
Morocc
meticulous
##hey
forwarding
millennium
encomp
conception
homicide
1937
vampir
revolt
grounded
Melanie
spectator
boyfriends
alienation
qualified
picturesque
freaked
Delon
printed
miniature
dispatch
calib
connecting
emerging
Killjoy
proudly
1920
pregnancy
Recently
Rosario
Honor
sparkling
excesses
concentrated
pedoph
Latino
shrill
virginity
consumer
cowboys
Strangely
orchestral
cigarettes
conquest
crawling
sanct
rigid
Sophia
undeniable
terminal
Takashi
blessing
permanently
Barnes
ecst
inheritance
Vienna
##historic
Birthday
loony
Hassan
Stalin
Roland
arbitrary
monstrosity
Alejandro
Beckinsale
subtleties
AP
Cathy
Coyote
Dull
FA
Fasc
Finding
Goss
Gena
Ign
Moss
Nim
Nam
Nell
Ran
Rule
RIP
Sens
Sentin
Werner
YES
ZERO
ace
bumps
bait
cudd
dug
dares
fri
hoo
halt
kil
laud
rookie
vom
wimp
##oing
##ecy
##mut
##iak
##free
##ril
##rowing
##wed
##gow
##gob
##gled
##UB
##WAY
##boil
##KY
##erence
##oro
##onst
toxic
##icates
##lets
##alented
##star
reeks
##ente
shield
shapes
shattered
##urer
##illion
##estring
scifi
##ako
outta
envision
leisure
##hinged
##ogram
quoting
prehistoric
disple
##nea
Inn
##quins
blaxploitation
interiors
Shadows
Hector
descends
Alba
deconst
##alem
owning
consp
ideology
craving
imposed
extremes
##aptor
##000
THING
fanatics
##ixed
district
edits
Donn
disappoints
Withersp
bloodthirsty
listing
avant
commentaries
annoyingly
Plat
Ord
Nearly
##ropolis
##coat
mistreat
coverage
##rita
featurette
theatr
Paresh
Comic
Directors
grandparents
battlefield
essay
Swiss
Freder
competently
practices
practicing
threaten
Coach
1800
sixth
employer
temporary
booze
dimensions
Romul
regrets
texture
Channing
flew
flees
emergency
Bradley
Mirror
consequently
hurting
Bernie
Bonham
contestant
Haunting
spells
integrated
Classics
elevate
bouncing
deceit
montages
patriotism
chronic
Coward
boggling
Madeleine
recovering
utilized
Dillinger
approval
Vargas
Mormons
rewind
grabbing
preceded
Dangerfield
Nikki
Ridley
HORRIBLE
paradox
Illumin
oppressive
Utter
seamlessly
adversity
inflicted
Maltin
Voyager
Giovanni
culminating
insecure
##OUND
staggering
sprinkled
empathize
Gustav
universally
burden
narcissistic
Turturro
tropical
bigotry
comrades
Norwegian
Humphrey
Torture
Laputa
Sweeney
Weapon
farcical
79
Busb
Cape
Cypher
DA
Dob
Dynam
Ew
ED
EM
LOST
Mement
MAY
Nad
Nest
Nana
Oss
Poo
RED
Tol
Tab
Tox
Turns
Vik
Yugosl
cooper
cavalry
dusty
eve
euth
kin
linger
mash
mole
marsh
moust
niche
pulse
##wreck
##kers
##inite
##isch
##isia
##arling
topped
##alas
##ovy
##ados
##chio
stoner
##rand
##raught
##ulty
envy
##andering
canvas
timid
Wheel
perversion
##itta
##ittee
##ishly
howling
Cho
pokes
spor
afterthought
##ipher
##ango
slapping
downward
Bruck
submit
smitten
worldly
accustomed
opus
secluded
enterprise
Search
schtick
Lev
Leach
Legu
missiles
Marian
refusing
excer
heartily
stupidly
marijuana
Donnie
Donovan
coal
##ysical
##otts
##selhoff
powered
anniversary
miscon
cannibals
cured
effem
documented
honour
##iency
Door
Neo
##ATER
Adult
##urbi
Luz
sentiments
campers
Guide
inspires
northern
granddaughter
##rama
Cheech
Criminal
negatives
moods
idiosyn
Highland
Franz
Hamill
Brock
Holt
splash
Feast
Boat
Greenstreet
separation
researched
##alyst
visitors
##nament
modeling
Hayden
assassins
Collette
SHE
##IRST
1928
Rosie
Ferris
widower
capitalism
integral
bikers
shadowy
##hhh
announces
MANY
declares
Beckham
Tobe
shoestring
contemplating
reinfor
plods
meanders
geeky
Johans
helmet
Mingh
Nevsky
Completely
Effects
advertisement
catastrophe
Cortez
intimidating
Rohmer
wheels
culprit
Pumbaa
diabolical
proverbial
bloated
Cynthia
Sentinel
Busby
Memento
47
77
Came
Cena
Eat
EAR
HUN
Kenny
Leth
MAR
Mald
OTH
Round
Saf
Samped
Vijay
Wise
Watt
bass
fury
fisted
gains
gaming
ilk
ly
lamp
mant
nest
nosed
nipp
pess
puff
rh
ratt
rene
rarity
til
tout
tanks
##oit
##eb
##mad
##mir
##iy
##fle
##rously
##uously
##SD
##SP
##zman
##kie
##erile
##itate
##rement
##reiber
brows
##adowing
##cended
anarch
##lda
liar
chimp
scum
scoring
ably
Iturbi
heritage
##uming
##uding
sheet
##cier
##uev
adrenal
Cham
##former
spouse
crotch
Station
roaring
##ocol
Alb
mines
underest
stray
##ailand
##ailable
humane
Brenn
insisted
revived
Notorious
runtime
Revere
##ucked
rests
confronting
defic
problematic
##ludes
Marjor
##erno
housekeeper
Meyers
Newton
succumb
mischie
misfits
successes
sniper
infl
Grady
Anybody
cinematographic
Troopers
Perlman
Phantasm
##ORS
##ONS
##iliation
planets
exposes
##brow
apartments
NOTE
adapting
1954
weirdo
matching
silhou
frontier
Finch
madly
damsel
1935
blending
##boards
complexities
sweetness
##borne
continuation
proportion
assumption
affections
logo
geared
Wilkinson
Sym
Denmark
scarecrows
mutated
risky
increased
seduced
reflecting
SHOULD
Popp
Bernsen
Beautifully
tricky
Suchet
Priest
Carolina
repetition
minimalist
##OPLE
Andrea
untalented
astonished
financially
renders
chronicles
Leonardo
SUCK
rhyme
REV
nods
Faulk
hunger
suspicions
recruits
townspeople
Townsend
ROCK
Payne
Kentucky
analyze
Courtney
Mamet
recreation
José
marginally
cowardly
vocals
Battlestar
Wrestlemania
quantum
Skeleton
conductor
Fernando
chimney
FUNNY
masculine
corridors
reperto
aspirations
unimpressive
##abulary
turbulent
PEOPLE
panties
vaudeville
resourceful
Antoine
dunno
caretaker
Nickelodeon
ridicule
Witherspoon
pessim
Marjorie
55
97
Bamb
Dunn
Della
DNA
Eileen
Grend
Ich
Kit
MI
PP
Past
Rise
Ses
Tash
Voice
Wisc
Warden
Zab
dummy
gib
hubby
luc
mism
marred
yacht
##citing
##mouth
##uates
##lent
##lady
##liness
##gement
##giving
##pos
##EVER
##MENT
##orama
##onia
todd
Theron
Thailand
##ovie
##owitz
##illand
##unci
scal
##anti
bye
##agu
##osy
unkn
unlock
myriad
perse
##pley
guise
##owness
Shaggy
Stiles
Joker
##ashbuck
inval
insens
##ordin
classroom
cargo
Soap
Beetle
carefree
Forbes
##astered
##umba
defines
Marquis
distraught
Clich
coping
sorta
corners
unfaithful
misfire
demographic
snot
commentator
novella
satanic
##ikawa
Amrita
speakers
Harlan
subjective
materials
twisting
Schreiber
barrier
utmost
Flavia
rocked
Martians
Trainspotting
tasty
grandeur
historians
crystal
collected
plainly
##zzled
##ermott
Bigfoot
drawback
goddess
gladly
bullying
Burrough
Belmond
redeemed
graphically
Spears
urgency
ripe
progressive
punching
Outside
Erica
##averick
locker
heyday
Hawks
tackles
vacu
farewell
Played
handedly
enthusiasts
Trip
Bogos
vanished
Gotham
ranking
Resident
exchanges
triumphs
Urs
albums
Hasselhoff
Talking
busted
Ultimatum
Galaxy
##onneg
dictators
Arabia
Shortly
Linnea
Crossfire
Dollar
Almod
jeopard
diversion
Caesar
Corbin
unstopp
Mulder
looses
enlist
##SIBLE
sorcer
exceedingly
Ladies
erratic
inconsequ
rewrite
insects
societal
riddled
Reginald
##anthrop
Sondra
promotional
Palestinian
NASA
Isaac
Confederate
Apollo
insufferable
exhilarating
Favorite
condescending
tasks
STUPID
janitor
Moscow
euthan
sporad
Leguiz
effeminate
Sampedro
mischievous
Grendel
Belmondo
32
CE
Cant
Croc
Cesar
CRAP
Das
Dre
Ec
Ealing
Fate
Fenton
GU
Gypsy
Haz
Haven
LO
Mood
Ness
Pab
Porn
Rising
Rules
Summ
Use
Wan
bicycle
ding
dross
fiance
groc
jolly
lane
lumber
mugging
pounding
roo
yadda
##lon
##lig
##billy
##zio
##path
##EST
##kingly
##esci
ink
bra
brink
brash
##ican
whack
whacked
##ovar
##ovic
##chief
##sexual
shtick
##tery
##thouse
notwithstanding
chained
##emkin
##ulates
frater
scorn
actively
plausibility
depl
dial
meek
unch
intest
##apore
##avors
disability
Chi
spitting
flound
Heavy
trappings
esque
finance
pretensions
smashed
personnel
impat
##itional
polish
##iterion
commands
behaving
animations
##ggs
graves
basics
##oteur
amazes
closeups
Prue
purse
Edel
Editing
Herr
effortless
##gna
Near
Phot
expans
Suzy
eyeballs
##liners
barber
Monte
raven
dumbed
Martian
Evie
Willem
Patri
Europa
Emmanuelle
puerile
purposely
proposes
bullsh
Parisian
Mississ
180
astute
Feb
##written
##tendo
aimlessly
Sykes
tendencies
digs
ITV
Casting
Underground
Underworld
Undertaker
Longoria
inventor
Playboy
intellectuals
float
Famous
Triple
distributor
cringed
mockumentary
tomatoes
##oooooooo
demonstration
Pitts
HAPP
untouch
backdrops
##asionally
comprised
Potemkin
Rowan
egot
boils
censored
prevented
Congr
regulars
anthrop
adulthood
enlightened
Peckin
Stockwell
Blonde
pouring
organs
Utah
abducted
reversed
Connection
Carnosaur
aristocrat
proclaimed
Giovanna
TERRIBLE
ineffective
Oppenheimer
EVIL
prestigious
traumatized
schmalt
Occasionally
luminous
mechanic
unresolved
SCREAM
Pertwee
##goblins
Minghella
repertoire
inconsequential
grocery
20s
84
BRA
Benson
Biblical
CA
Cash
DARK
EL
Guev
Hines
JF
Ler
Lila
Museum
Nanny
POV
Raf
Sj
Tenn
Vonneg
Wave
Wicked
Yam
dess
dup
dumps
fer
hunch
icy
jab
lung
sassy
ting
wiser
##mie
##nant
##ipper
##wyn
##uating
##gated
##phing
##jar
##inery
##lless
##anha
##itzy
##lean
##cho
stoop
forbid
filmic
##urray
chunk
##eler
someones
unrated
prod
feather
pert
perv
##aprio
thematic
ard
##ourney
betrays
Chair
##pring
spraw
flops
##phin
##phants
##athed
undertones
residence
contents
traces
decre
downside
##azzy
compilation
smokes
muster
eponymous
indict
##astery
restless
restoration
provoke
superiors
assorted
Spaghetti
Steel
disappointments
heroism
##otto
easiest
##ologists
Hispanic
critters
##ronics
continent
Pepe
slew
Tomlin
Phyll
DiC
variations
Twice
Comed
Desert
Graves
Serbian
closes
haircut
Cheap
physician
blended
midway
earthquake
MacG
##ausen
tasteful
##sequently
Polit
Fein
##abba
cleaner
cleaned
autop
thorough
blinded
denomin
gripe
praising
Suspect
contrasted
skinned
opted
Louisiana
##avern
banana
environments
association
Morgana
Military
Teddy
loathing
holocaust
giggles
distributors
ethics
Ferrell
poignancy
chairs
Savalas
facade
Dreams
Venus
McDermott
Contin
galore
newspapers
helicopters
Muni
SEC
blurry
Caan
Bailey
ponderous
Champion
degrading
Vinci
awakens
therapist
fulfillment
sensuality
sorority
frenetic
exceeded
pioneer
measured
Bronte
Kersey
miraculous
staircase
Henriksen
mannequins
##igsaw
Siegel
aplomb
lifelong
strategy
aggrav
shudder
##ranean
Mattei
Identity
Saudi
maneu
excerpt
Johansson
reneg
Wiscons
Bogosian
unstoppable
Leguizamo
82
Agn
Base
BAT
Banks
Basket
Cul
Cure
Date
Epp
Fiend
GW
Hus
Hark
HAS
Korn
Lanc
Mia
Male
Matter
Mature
Motion
Nav
Paper
Rivers
Rudd
RUN
RATING
Soy
Troy
Willy
Ya
brew
cum
diet
lou
munch
sid
sessions
ts
##dance
##mn
##nett
##iantly
##wa
##ugh
##lore
##bin
##poken
##esp
##isations
##omena
beers
begg
##advent
##ereal
##irting
hacks
##erserk
##thora
##rose
##roach
##olation
##akin
outbreak
outweigh
##istingu
##umer
dizz
goody
feeds
##aby
agreement
Andie
##prints
spat
spouses
Shut
Shab
Hew
Hearn
##arkar
stills
##ector
leaden
impossibly
elicit
lethar
delves
Leung
param
perfected
preserve
talkies
Arc
excrement
Donner
Manch
passions
Carax
plethora
Evening
impressively
reduce
beginnings
swashbuck
mastery
predomin
##elsh
listens
Eden
Gerry
cooler
##ANCE
fourteen
meetings
clearer
Frenchman
rockets
strikingly
winded
attracts
reacts
##zzie
sumptuous
##struck
unexciting
savvy
Jeanne
squirm
Barbie
Greenaway
Eddy
unwanted
unwittingly
Northwest
assisted
ensuing
Cassandra
textbook
Against
seducing
fateful
frail
tribes
Hartman
Oldboy
ineptitude
Radha
expertise
bonds
Tyra
holidays
descriptions
Artem
contacts
ethical
##ummies
reminis
accompanies
demanded
indulgence
Momma
argued
cocktail
innovation
illustrated
##judice
slopp
tabl
folklore
Creasy
perpetually
maniacal
Julianne
ingenuity
Grease
Boliv
precision
persuade
Sixth
Breaking
reckon
exclusive
Lieutenant
orphanage
decorated
Ridiculous
unnamed
Henderson
Ripper
Pollack
attachment
Thornton
Beginning
mathem
muscular
societies
masturbation
Frontier
Finnish
piercing
extravag
Experiment
Ajay
cloak
mutilated
##present
##iscovered
Beware
Dragons
Sybil
Riddick
Hunters
amnesia
prototype
Rififi
Sergei
Diesel
Farnsworth
rabbits
voters
subversive
Faulkner
Vonnegut
Wisconsin
56
7th
Baster
Cad
Cele
Dino
Dentist
FIRST
Hare
Hern
HAR
HAD
IR
Lol
Lies
Moll
Race
Riz
Sug
Skin
TM
TRA
Typical
Uk
Won
Wings
Warn
WOM
Zucker
bid
bourge
cel
gaping
hog
housing
kitsch
lem
mice
panned
rally
uber
##cony
##miss
##mination
##fighters
##rill
##rences
##uition
##bred
##power
##ju
##LAND
thirteen
##erving
##isable
##ommel
##chin
shaft
##esses
exte
extend
exasper
##uscious
##uscript
orgy
##indler
management
permission
arises
lookal
peer
##ishi
adject
disgr
realist
blas
flare
Shield
Stur
Stories
whereabouts
##ultz
grieving
slugs
sluggish
resorting
##velope
Bring
evolves
compulsive
apple
scriptwriters
kinder
carbon
Social
explor
craze
Beau
courts
artful
entertainer
runner
ours
Blow
monastery
THR
Scand
discom
skies
edged
marine
pictured
Carry
Jackman
##isters
canned
figur
Amos
Harvard
Tomatoes
##certing
oneself
posts
##ubbed
engages
##lining
Twenty
Abbey
Goodnight
Quest
Mona
Descent
Gracie
uttered
##lette
##untled
crypt
immersed
##ervice
tortures
##ausole
dimw
interviewing
foreground
harvest
Adamson
Barbarian
resembled
##regation
droll
Stevenson
Dickinson
willingness
Helena
celebrating
Sherman
uninvol
duh
radioactive
proceeded
Writing
hallmark
connects
Miriam
purchasing
hysteria
dominates
participating
filter
addressing
indulge
ANYONE
McGavin
PLOT
##ariably
tagline
hesitation
towers
jewels
confesses
spreading
mistakenly
detracts
offspring
Nintendo
Singapore
graduated
Falls
aggression
contemplate
incorporated
compromised
confirms
plagiar
babysitter
vocabulary
collapses
Voyage
Sigourney
Roeg
agonizing
honeymoon
ABOUT
manufactured
911
MPAA
german
Released
homophobic
Thursday
disconcerting
##yshack
Brennan
PPV
Ursula
Peckinpah
JFK
Basterds
65
6th
Bret
BAR
CAT
Elish
Hess
Jov
Jung
Jabba
Lack
Lars
LAD
LONG
Lazar
Munch
MEN
OM
RP
Rac
Trel
Wed
cub
fing
gy
harb
jugg
jumbo
luscious
merry
mamm
ransom
sult
ubi
yards
##nick
##ttes
##SA
##pm
##EEN
##je
toes
##itative
brawl
##otent
##adle
stamp
##imon
##imil
##erend
heel
lied
##istful
##istical
##astical
##ardust
unab
manuscript
trunk
watchers
fearing
perky
endorse
disapp
amusingly
##iances
flirting
crushing
Shane
Shows
Stardust
backward
mining
income
financed
prett
accol
bores
indirect
Bea
Depp
Notre
Notice
##oks
Blaise
monument
glue
imagines
disclaim
assess
Stein
opener
behead
passages
Jackal
advoc
waits
Meek
McE
Danie
Maya
promisc
Gods
Contain
Haruhi
Richie
Elis
Elsa
narrates
hello
spirals
Succ
Benoit
literate
Martine
projected
##artheid
unsub
repellent
Glory
Emb
##OOL
beds
##ISE
wallet
screamed
Muriel
Belgian
islands
186
Holiday
conflicting
alienated
burial
Board
Harron
thankless
progressively
thinly
sunset
Susie
departments
archive
Palm
balcony
surrealistic
Daria
establishes
Prejudice
Ella
contributions
nerds
seduction
speeding
Vietn
alternately
vacuous
Compare
Nichols
liberty
harmony
Toro
sneaking
Armand
participation
puzzles
##addyshack
overacted
consciously
metaphors
observing
gaining
fairytale
hillbilly
ventures
Screaming
bursting
##cratic
humiliated
##amboat
sustained
Pinhead
incorporate
perceive
applauded
resonance
sufficiently
sterling
Tatum
##chenbach
woeful
queens
measures
Dyke
Destiny
backstory
instrumental
Groove
Battles
craziness
Knoxville
Female
depraved
twenties
soulless
prowess
spouting
revisit
publisher
appetite
Mansfield
Cambodia
superlative
Cahill
BABY
disfigured
untrue
gullible
calibre
Malden
Watts
Cliché
Soylent
Elisha
Aqu
Bright
BAS
Cup
Dod
Dandy
Eater
Fif
GL
Gack
Garr
Gosh
Gunn
Hyn
HARD
Ine
Kal
Langu
Mate
Mermaid
Nature
Ox
Oreg
Pack
Razz
Rooker
Sed
Ster
Till
Veter
bise
dental
fiend
mug
omitted
posed
pills
sax
tens
tying
tips
wolves
##dling
##mation
##tor
##frey
##rance
##vor
##hame
##jan
##LESS
##erotic
##atose
##iso
toll
##itute
##rec
##sta
reen
haunts
chic
churning
##cked
##ckett
sull
comatose
##usk
##agi
envelope
therein
dise
disor
guerr
Shak
##angs
horizon
##ocused
slug
incarn
strut
stride
newest
farther
putrid
revision
DeL
Deer
articles
Weber
Rebel
Reba
Blind
THERE
specialist
skirt
refined
memoir
##vino
starlet
credential
##rica
snobb
mores
Gris
Hermann
##OTH
##ikoff
figuring
nonstop
Orange
Orwell
Harvest
roommates
illiterate
Elaine
##coach
Williamson
##ubbing
signal
Schultz
Monkeys
Monogram
historian
##ophone
trashed
Criterion
recordings
##zzard
statues
bizarrely
proposal
naturalistic
investigates
freshman
faithfully
escapist
escapism
throwback
throwaway
Snatch
Dourif
dreaded
Babs
Treasure
sunlight
contrasts
losses
foreigners
choreographer
wraps
Hartnett
Underdog
Mercedes
intentioned
palm
eroticism
refreshingly
gentlemen
alcoholism
acquire
acquainted
sneaks
Kristen
capitalist
heavens
fondness
ranked
Animated
cancel
Fleming
Couldn
WORLD
unbearably
##balanced
Viva
Grem
heightened
unfairly
Atlanta
encouraging
undercur
Magnolia
engrossed
leadership
Incredibly
Myrtle
memorably
frenzy
sacrificing
##indsight
grinning
Gretchen
autobiographical
epitom
heiress
Lassie
intertwined
reincarnation
Sasquatch
AGAIN
Tibet
wasteland
Levinson
Desperate
paraphrase
Forsythe
quibble
accusations
Avery
Belgium
USSR
Frederick
Lethal
rhet
vacuum
Guevara
dessert
Feinstone
dizzying
disgruntled
disappr
Vietnamese
Gackt
Oregon
54
Aam
Ary
Boor
Cops
Ewan
Found
Faw
Fright
Gannon
IRA
Jans
KG
Kust
Kab
Kare
Lith
Lag
Lana
Pon
Pim
Pity
Syn
Tel
Virt
Welsh
Yv
ck
cass
files
gates
garde
guru
hick
hosp
hobby
hindsight
lured
lampoon
laund
ramb
richer
sans
signing
tum
ticked
##dams
##cett
##cuts
##not
##ais
##iph
##fu
##rums
##watch
##gang
##ouz
brides
##utton
it´s
##ilogue
bearded
Thumbs
##owe
rewards
##chal
##etical
##imer
##alli
##allingly
##irable
shun
chips
##elm
scaring
##olay
##aggio
decipher
outt
##ichton
##osl
##igen
fend
##ogo
overhead
overcoming
disk
poly
##obe
##prising
fling
Heights
Stat
removing
grit
miners
##lessness
Aschenbach
Brash
##ossal
longtime
youngster
invariably
sexes
childlike
##oko
poorest
##ahi
##umbers
preserved
recommending
eyel
Marce
Marvel
topical
skimpy
heartbreak
##racted
grapp
retread
violin
##ennial
adviser
annual
misadvent
##oubt
pastiche
successor
meditation
shootings
picky
Orland
Neigh
Pepper
Trash
Period
dreamlike
Drum
##coe
arena
equipped
Samu
##incl
Goodfell
##OUGH
Desi
Desire
##araoh
limb
Blacks
malevolent
##ference
riches
neglig
commonly
SPACE
Swim
machinations
machinery
delights
Boyce
criticizing
dangerously
##alta
bottles
Yeti
squand
hosted
Feel
##boys
absurdly
discusses
cellar
##restrial
Terrence
Sadd
Maguire
joyous
##atonic
professionalism
Connelly
Largo
horseback
Ramón
interacting
belonging
Lindsey
framework
Romantic
spoofing
tribulations
unevent
graceful
emerged
injuries
Minor
idealism
enthusiast
giggling
Bogdan
exaggerating
Natali
Productions
Lamarr
capitalize
fondly
observer
elevated
altering
sketchy
neighbours
declare
inherently
suburbs
squeez
approve
exhibit
vulgarity
Isabel
precurs
Impossible
SFX
Dudikoff
sterile
sweaty
infantile
Pixote
slutty
Fanning
reportedly
Circle
nitp
Sorvino
masochistic
FOX
liquor
liquid
bewildered
Independence
Invasion
Burgess
deftly
intervention
Raiders
Pleasance
component
Extremely
administration
infuriating
misogynistic
abominable
lapses
contemporaries
uncontroll
contender
Meadows
Ichikawa
Sesame
Mississippi
renegade
bourgeois
ubiqu
Elisabeth
bisexual
Fawcett
Balk
Beren
Babb
BOY
Ce
Cous
Cillian
Cauc
Caddyshack
Gale
Gino
Loose
Maugh
Nu
Pang
Raven
YEAR
Zod
barren
bomber
cine
cav
dough
faked
fading
ga
gaze
gutter
hilt
jung
lined
ness
pets
sard
##fr
##fried
##rude
##uise
##gant
##AZ
##pot
##hild
##kroyd
##erting
##orial
##enh
##eda
##ariously
inbred
##utional
##ilo
##sth
##store
##iman
sew
##urica
hailed
butts
chord
chiller
##omez
scout
exudes
ally
##acter
##usal
outward
##uma
uno
unful
getaway
timely
prices
##abl
##avi
##avig
quirk
precon
Chicken
wrath
##acco
##iane
##ulture
drums
surve
Fraser
genie
relish
smirk
##ibles
kiddies
actioner
Sheets
handc
indicated
Sevent
##hips
relegated
Atkinson
Scoop
Clouz
elephants
wronged
Manuel
collage
forming
misd
paste
Ground
Grint
repug
Conway
Neeson
Pend
posse
tenant
##rites
oddity
campfire
spoilt
convent
doubtful
actuality
danced
Quin
rocker
Finlay
execute
sickly
immoral
Sword
Cracker
tracked
fashionable
Berger
Annab
OFF
##rooms
harmon
occurrences
sixty
behaved
Krish
##ADE
Duk
joys
youths
Help
##bbed
employment
Sherry
Palace
tournament
belonged
contrasting
Lindy
pursues
Maxim
stretching
juicy
trucks
Kimber
fetching
uncommon
Mira
palatable
scrut
Bonanza
Priy
simplest
swims
Grandma
Modine
domination
coincidentally
Verne
Owl
Crypt
Astin
announcer
disguises
wondrous
dignified
##obias
groovy
Intruder
elegance
busting
Ringwald
Hindu
poisoned
apologies
tempered
approved
Rudolph
candidates
ruler
Interview
Viewers
preceding
lamest
Duchess
omn
hypocritical
uncertainty
aristocratic
nurses
Working
decapitated
calculated
depravity
Hobgoblins
##riminating
arrangement
procedure
foreshadowing
accordingly
crucifix
nickname
withdraw
unintelligible
##bourg
Executive
Blandings
Tweety
scarcely
Perez
masquerading
Gonz
Weekend
MacMurray
hitchhiker
Kirsten
Morocco
Dynamite
Luzhin
OTHER
gibber
Burroughs
Almodovar
Phyllis
Artemisia
Sterling
reenact
Boorman
Brashear
unfulf
Clouzot
68
Bi
BACK
ER
Era
Fir
Frog
Gas
Gomez
Himes
HERE
Iowa
Kerry
Lyle
LSD
Mail
Own
Pain
PAR
Rut
Sach
Tany
Tamb
Tonto
Tolk
Ve
Yo
caves
dame
eX
fitted
hmm
kitt
lent
lament
mausole
pout
wan
yupp
yrs
##cles
##niac
##iated
##fold
##rons
##rano
##UCK
##TING
##FORE
##LES
##PH
##inée
##enzie
##aret
##arry
android
##icus
bem
whirl
rect
##entive
##entiful
##chand
sting
stall
##cemi
##amation
##amish
##amatti
sel
##iri
hail
##illance
chubby
comically
outings
necks
unac
propr
noisy
goons
willed
Chile
##achi
##queness
bloom
spins
flips
Sharp
afterlife
Stones
recount
gram
grudge
slime
miner
minions
##asey
incarnation
##iao
##azen
submission
pretense
relive
reliance
checks
invin
appallingly
Sof
beauties
Sexual
Weiss
enticing
Leop
parable
parole
Chronic
superimp
visitor
Archer
Arden
Steiner
exclaim
graces
failings
lighten
##ouching
misfit
swings
centres
commenter
Danning
learnt
repuls
Amel
##trap
Trinity
##ATOR
antid
Adela
potboil
english
milest
milieu
##EAK
Goodbye
rocking
Grahame
copyright
bandit
immort
reprise
Higher
packing
assumptions
##alties
Annette
Below
Slayer
Poland
traditionally
behaviors
software
Giamatti
magnitude
noirs
Teri
hams
eighty
Judging
Northfork
duet
Darius
Hoover
increases
##ucated
kissed
disposal
Loch
Raul
Raquel
spray
Mirren
lowered
Salv
LAST
excessively
Sunrise
dynamite
Lamas
disservice
Idol
exerc
Clinton
bounce
##orcery
Callahan
Awesome
presumed
convenience
Ricardo
MAKE
Strauss
Intellig
SUPER
Churchill
offset
banging
Singin
Opening
senile
Robbie
intrusive
settles
recruited
Ethel
Shaolin
exhibits
unsatisfied
gardener
rituals
Tamura
hesitant
##HHHH
Wyoming
foggy
registered
Foreign
gamut
zooms
Buscemi
tunnels
pronounce
moderate
Olympic
privileged
recreated
hottie
hottest
seaside
Independent
mourning
verbally
Yokai
tantal
Konk
undersc
reservations
747
disillusioned
Ullman
eldest
tissue
Pauly
treacherous
Cristina
consummate
POSSIBLE
Gutten
Schmid
Saxon
saturated
Ingmar
idyllic
EARTH
euthanasia
CEO
intestines
Agnes
lookalike
Aamir
Kusturica
Orlando
Goodfellas
precursor
ubiquitous
Himesh
01
44
51
89
Burning
Cale
Fah
GH
Hide
HEA
Hedy
Hanna
HIM
Igor
Izzard
Jump
Jaff
Kelley
Mig
Nemesis
Parr
Sac
Tu
Tate
Tunn
Vul
Vel
Vito
Witness
ben
bung
dick
fx
gover
hast
hob
jig
lest
lions
lingers
mull
meter
nameless
por
penguin
powder
tarn
vu
vows
wag
wobb
##dro
##made
##aic
##vil
##wash
##lah
##TA
##erks
##inges
##ourage
##isies
##arable
tob
##itory
##otics
bend
##chingly
##etary
##iden
asc
shops
shabby
##cky
##unit
exiting
sopr
allusions
##istine
orbit
engin
division
##about
##ogs
knit
##avage
quoted
intoxic
Chall
##aways
guides
cronies
Heche
await
##iping
##angled
reciting
spewing
Alab
stressed
surfer
##beck
##beau
Brief
evangel
Anime
inviting
epid
Seek
Deal
Decent
impaled
imposing
Reason
##ahoo
##ahah
defence
##iteria
Robo
discarded
asses
assets
coarse
examines
unfocused
##ribution
##ricane
impresses
##undy
Newhart
fantastical
purity
earning
McH
##enched
infested
Geena
magg
##ettle
typing
##atsi
Trent
Peralta
cheapest
##makers
futility
##formers
premature
teaming
detailing
embell
Bye
climbs
rocky
fronts
affir
strips
Travel
Serial
publicly
Patsy
capabilities
##olfini
recognizes
Barber
answering
Chey
Crichton
Madh
Madness
Vanilla
stepfather
Lovecraft
packaging
##auser
testimony
exploiting
dragons
Burr
governments
succeeding
occurrence
##ooping
187
passionately
##hammer
objection
Genius
divide
autistic
rescuing
Menace
Camer
hideously
INC
Carrot
researching
##arlo
screws
16mm
snowy
Cinemax
Collection
hacking
populace
CHE
CHAR
Rosal
serviceable
cameraw
Claudia
dominant
Amazingly
nutty
Poorly
showcased
Gabby
unfolded
LIV
##aghan
Fatal
MAG
Saying
federal
outlaws
##OSS
EXACT
bogus
boiling
owed
Gandolfini
##handed
Songs
townsfolk
Critics
rifles
exquisitely
glimmer
editors
##remacy
Shahid
hallucin
Selma
Dangerous
Conclusion
muddy
Governor
oppression
prophetic
Birds
##occup
##ourable
Gilligan
Avenue
Rawal
nicer
breezy
benefited
nymphomaniac
Tyrone
odyssey
##children
Aykroyd
punctuated
decadent
comprehension
Example
notoriety
majestic
reworking
Semitism
Wentworth
Mongol
Predictable
Survivor
Gertrude
oscar
lyric
DiCaprio
discomfort
LADY
sultry
disclaimer
uneventful
Bogdanovich
Tolkien
antidote
78
700
96
Biz
Booge
Cé
Coff
CBC
DD
Dug
Et
FU
Food
Goo
Gail
GEN
Gellar
Hed
Holes
HATE
HIV
Jou
LL
LDS
Merk
Misty
Obs
Pos
Pip
Pesci
Saur
Taken
Une
Uzum
Yosh
cutes
cott
eagle
fract
ferv
fugitive
gals
lore
lick
noses
naval
pes
pud
pudd
ranger
tighter
yank
##cuss
##vie
##uan
##lation
##los
##AX
##bag
##PL
##orio
##ouver
##arad
##itized
inmate
##otomy
##alia
##alma
##eters
##sef
forens
chunks
##rious
atop
fridge
scor
scars
plentiful
allure
##olitan
##uso
##usc
##agne
##istas
dives
diagn
##pty
scenic
claw
clones
peripher
##uchi
bets
overth
##necks
cramped
criteria
Shia
##ipse
1900
remaking
recl
sledge
surrog
apocalypse
decoration
finer
submitted
##lesinger
indisc
Johnnie
extension
boyish
Leaving
Leila
##ruary
Scully
Marco
styled
detest
##ombre
generates
##ricone
##idental
predators
shootouts
profits
steep
Harp
Harlem
Pecker
solar
solitary
Ohio
antic
Adapt
technological
devour
Elen
Else
respectful
Morricone
Schindler
Comment
issued
Abu
Graffiti
patrol
##uffed
Proph
communities
travelers
Swift
Louie
competitive
Melinda
productive
fatally
freshness
climaxes
breathless
Roch
Philo
Judas
Silvers
mutilation
blocks
##UTE
Ronnie
accomplice
naï
Tito
flea
##idgeon
screwing
imaginations
inhum
inhuman
Lori
Broadcast
Catal
counterpoint
hurried
BEFORE
endeavor
1927
Dunaway
Model
batman
Haunted
Cruella
wandered
Landis
Caprica
cockney
Thanksgiving
miscasting
devilish
Princi
explicitly
prayer
squeamish
EXT
chews
orchestrated
##istenZ
scrap
Linney
mesmerized
differs
Baltim
gloriously
psychopathic
Crossing
dramatization
arcs
fluffy
partnership
enchanted
rumors
ADV
Spiderman
Furious
Candice
revered
Ripley
backstage
Piranha
restricted
jocks
geeks
degenerates
conducted
Liberty
Tyrann
Peebles
mercilessly
undeserved
Flatliners
thespian
McClure
eerily
outbursts
mercenary
irreverent
Tarkovsky
microphone
tranqu
Performances
interminable
underwhelming
moustache
Tashan
mismatched
deplorable
February
duped
denominator
Language
Gremlins
Lithgow
laundry
sardonic
unoffic
eXistenZ
mausoleum
Leopold
Chronicles
Alabama
49
Aiell
Calling
Dane
Ear
Elf
Ending
FAR
Imm
Jazz
Killing
Ladd
Mith
Mum
Mante
Nut
Nud
Osw
OTT
Pit
Pathetic
Porky
Rum
Random
Sum
Sang
SOM
Tets
TOT
Tena
Vidor
Wire
aust
faking
maud
nub
pits
pales
riddle
rushing
tainted
zoo
##ezy
##mitt
##munks
##iqu
##look
##long
##bos
##zac
##horn
##CI
##BA
thirsty
##ouf
##isan
##edon
##asive
brass
brute
##omwell
##stock
##adder
stem
forum
forese
aspire
seated
shade
shambles
heed
##illas
charts
##omeo
##omend
atypical
scathing
##olith
##aglia
deceptive
conver
enrich
enables
enraged
##icho
meld
meager
united
unthink
lech
anyhow
clunker
knuck
##ineering
##plain
##iva
##inton
ampl
guff
##arya
crumbling
plotline
##cco
Stir
Stowe
grumpy
slashing
Alpha
Franch
esot
supplied
appointed
##aird
epilogue
DeP
Deol
womanizing
##ignant
Reign
Myster
parental
paraly
glances
##grass
Spart
singular
marching
copying
coated
favorable
plea
Michele
transforming
Nowadays
infinite
caption
villages
Edmond
Neg
escort
Adv
posh
gunfire
narratives
##cocious
landlord
##ubba
forgivable
soundtracks
flawlessly
Scha
Schro
Flaming
Benedict
Austria
Finland
execs
fireworks
##combe
1961
cryptic
recognised
Vanc
Swank
Highway
jumpy
ballroom
persistent
##bluth
##abbing
urges
Carlo
Carlton
implication
surfers
deserts
opposing
hampered
Large
preference
McCon
Lesbian
Damian
Palmer
separately
Farrah
Olive
Clevel
Hawkins
rebuild
conceit
conceivable
reflections
spinster
BEL
flopped
##uhr
liberated
##BODY
addicts
tomato
Dunst
fictionalized
experimenting
Curry
Savini
PLAN
Ozu
facets
Hearts
corporations
obligation
Fatty
MAJ
activist
presidential
concluded
clowns
mechanics
impersonating
saddled
##pelg
McKenna
Oklah
cohorts
repression
Transformers
refugees
incorporates
Gleason
awaited
smells
imperial
##astardly
venom
catholic
barbar
abduction
diminished
embarks
##orthodox
culminates
muscles
Dialogue
mimic
eyebrow
Filip
Jenkins
Regina
extravagan
cosmic
##ogenic
gambler
Viggo
alarming
overwhelmingly
vagina
Fujimori
café
whodunit
unrecognizable
clutches
Prospero
Zelah
Ribisi
##WAYS
displeasure
Platoon
Bruckheimer
Leachman
insensitive
Epps
Lancaster
Hynkel
Veteran
credentials
jungles
repugnant
Kimberly
Tanya
Tunnel
engines
camerawork
Baltimore
Aiello
Mantegna
Tenacious
8th
Aly
Aub
Bour
Bix
Cer
Cren
Celine
CNN
Eh
Freedom
Feder
Fagin
Husband
Haim
JC
Jek
JACK
Loom
MID
Ny
Nem
Narr
Oy
Rox
Sony
Saints
Tower
Taker
Troll
Tennes
Veid
Wally
Wide
WON
Wales
Xavier
Yang
Yup
dat
dent
dastardly
eater
foe
hay
hodge
lod
lapse
nanny
witt
yr
##dream
##ea
##aam
##farious
##las
##gatory
##Sh
##IVER
##bbe
##ég
##NED
##BM
##inny
##aren
##arotti
inqu
##ilal
Thought
##stairs
##chors
asin
##vern
anec
##amy
shes
shov
##urious
##illot
##thyn
choke
##estro
##rawn
##rod
##unal
scow
soda
weave
##action
##akably
deploy
neon
nefarious
cans
timer
unimp
unchar
unorthodox
prose
##ityville
##geons
##ciful
##ogues
##ogging
lovel
overhe
overplayed
precocious
Chick
wrist
##ianni
blazing
Shim
Ship
Stage
Alaska
contra
genetically
Associ
evoked
##ubus
terrain
##lesque
Anatomy
needle
accuse
teller
##ooter
cleavage
##redeem
tycoon
delusions
deluded
Lean
##rette
glitter
##iolet
##rukh
Screw
Ones
detach
reflex
refusal
##ceptable
heroines
Maniac
gravit
##idding
Caruso
sadism
lighted
THEN
amaze
##INT
collision
mattered
swell
pasted
democratic
dealings
snob
Dani
honored
teeny
Amb
Trade
ridiculousness
Englishman
##mmas
gunfight
posting
equation
Sammi
compliments
signals
##brook
Morrow
Suit
eyeball
Angle
weirdest
Martial
trainer
operations
operative
erase
totalitarian
agreeing
Barcel
catalyst
massac
pointlessly
Goldsmith
##althy
terrorized
terrorizing
programmes
fearless
Africans
replaces
Australians
##uddled
Babe
biographical
hamming
blindly
Silva
Sherri
visionary
grader
templ
awkwardness
Lindbergh
DOG
protected
Olen
abandons
petition
##osaurus
philosopher
pressures
seduces
admirers
Minutes
lesbianism
floats
1929
CHILD
mocked
Prize
##theon
policies
Florence
demonstrating
bitterness
iceberg
Claudius
skeptic
Charlize
concentrating
Producers
dissatisf
metaphysical
observes
librarian
Thinking
Contrary
council
Fleet
sailing
Curtiz
Tenant
wannab
seventh
Jericho
cornfield
Ernst
Panahi
matrix
Singh
Munro
ingredient
Arabic
Booker
malicious
befriended
unprof
injected
Lumumba
misunderstanding
suspiciously
EVERYONE
dramatized
lipstick
Cartman
contradiction
Cyborg
assembly
lunacy
scheduled
hallucination
CONTAIN
reconst
tenth
enlists
Mainly
HORROR
swallowed
Tsui
reversal
Molina
pioneers
Portugal
##rupulous
Pirates
Factory
collapsing
gleefully
cherish
molest
Style
Popeye
##blahblahblahblah
Libby
Yankee
bodily
reincarn
arrangements
sharply
Adrienne
Butterfly
Punishment
TNG
nihilistic
incessant
exuberant
Sloane
Pilot
brainwashed
histrionics
digitally
dungeon
GIRL
Raveena
Pavarotti
Komodo
Celeste
seminal
##garten
Innoc
persever
Patriot
egotistical
Culkin
Shabana
Razzie
Samuels
Zodiac
gibberish
kittens
selves
grammar
Sofia
maudlin
Cleveland
Crenna
Veidt
anecd
46
Ape
BT
Bake
Bann
BOMB
Coop
Cutter
Dag
Dix
Dench
DIS
Fol
Gage
Hane
Hicks
Horton
Hauser
I´
Kus
Koh
Ling
Nord
PM
Pino
Rap
Rumble
SER
Wicker
Zu
aster
ailing
ba
cows
cuss
fero
hool
kib
lair
mise
mermaid
naming
piles
pinn
rents
rants
sizz
tide
tug
tier
tails
ug
wat
wistful
##eck
##car
##cott
##course
##nio
##try
##fa
##uo
##uhe
##SON
##USE
##UGH
##brew
##hor
##ão
thre
thes
##asis
##icke
beau
##iets
##owingly
##cht
##chard
##section
##imation
Theo
##amax
sewer
##tering
haha
liven
chur
##essional
##estruct
##roianni
soil
soaps
congress
##ackers
unbalanced
prosth
##igated
aroused
##ryl
Cha
Chay
Chill
Ingl
##acular
guarded
spawn
interludes
Hear
##izers
Statham
roaming
recite
##ocus
spear
slit
resign
humming
enjoyably
evolving
subter
##alette
stup
invading
accidents
##ordinate
sexiest
telly
Shea
camarad
indel
callous
Been
Forster
##istics
delusion
Leather
##retooth
##uckoo
conference
shortened
proven
creatively
acce
##grade
specials
skips
detr
Noam
retard
retribution
concur
bases
starved
waiter
Edin
colossal
momentarily
evils
Amityville
Conv
Davidson
Peaks
Trilogy
gunman
gunned
illusions
##ENCE
Twins
Simba
writings
Desmond
Nightbreed
operates
immers
communism
communicating
reacting
Swope
Boyd
##imentary
bullied
spectators
Briggs
Darko
squal
squarely
burgl
Canadians
punched
accommod
balancing
unknowns
Northanger
tempo
assistants
sacchar
suffoc
improves
troubling
tribal
Merc
Dogma
chopping
Usual
ashes
Roscoe
ethereal
sparkle
arresting
ALIEN
tearj
McGregor
wrecked
Animator
transformations
jackass
bordering
Hillary
outdoors
assassinate
weaponry
storms
attendance
Ahmad
launching
furry
Media
steadily
calmly
Liza
Epic
PRO
hopelessness
trademarks
strokes
Thunderball
Crowhurst
Hanzo
Starship
Snowman
Cartwright
indicating
Sharpe
loosing
degrad
dilemmas
Osborne
enlisted
exhausting
probable
Bethany
Violent
Mortensen
athletes
farting
conducting
Naomi
nursing
cherished
Meatballs
cautionary
Durante
ancestors
Chabrol
quotable
McIntire
acquaintance
acquaintances
Mastroianni
##akuza
eloquent
kidnappers
disparate
dishonest
Taiwan
infatuated
Blythe
inadequate
Kronk
Corporation
Literally
Stoltz
Ewoks
sorcerer
fraternity
bullshit
lethargic
Rizzo
Warners
unabashed
Maugham
Krishna
Dukakis
tobacco
Jouvet
cutesy
Nudity
Vancouver
MAJOR
Oklahoma
Loomis
Barcelona
Haneke
ferocious
camaraderie
76
71
83
87
Ath
Aish
Average
Breat
Comet
Culp
CRY
DS
EY
Filled
Gross
Gamb
Gopal
Hate
Hog
Hoe
Ichi
Jama
Kite
Kang
Kalifornia
Kuz
Luthor
Muss
Nast
Pi
PRE
Pidgeon
Sly
Sart
Takes
Telly
TRI
Yash
Yuz
bast
fists
frol
gaw
hok
mumbo
overe
pipes
pardon
sme
ugl
yield
##met
##mins
##mitting
##iose
##found
##lene
##ICH
##zies
##EW
##LING
##20
##atown
##ativity
##orks
##oux
##oners
##onation
input
##recks
##otivated
##utable
##alm
beans
bending
##change
##etz
stif
##sea
##alle
shaken
##urrection
lib
chin
##ulance
##ustre
##roft
expend
dearly
outpost
herald
oral
enam
##anding
untime
leaning
trance
##abar
pervas
endanger
##adeus
pean
##planes
badass
quad
quips
preoccup
twilight
##assing
##acon
##acent
makings
characterized
##berman
Stooge
vend
slipping
reserve
herein
contamin
apology
Ask
finesse
pretension
trigg
tripping
Answ
originated
cheered
effectiveness
##orda
##apper
borrowing
indesc
indestruct
Se7
Bears
Develop
elic
Rend
Requ
##illiard
##ointment
Unbelie
glove
headlines
discoura
excurs
copious
coins
blackl
violated
fullest
Jacket
unfl
transsexual
redhead
mastered
closeup
Prim
purists
morgue
stuffy
Granny
villa
strapped
shooter
##ikiped
motley
promo
reporting
Amar
Amelia
Indust
Consequently
##ANC
##ATED
solves
##LLOW
doubles
payment
tenuous
Yesterday
Expect
Simone
strive
strives
Austrian
Blackie
grandiose
ANOTHER
Ench
brained
identifying
socialist
furthermore
Frederic
Security
rapists
Image
criminally
##strasse
appealed
redeemable
noticeably
Missouri
responsibilities
Jeanette
11th
goldfish
sixteen
Feature
Ava
lifting
miracles
Connolly
sunshine
Liar
Darling
researcher
recalled
Nicky
READ
banality
improving
fundament
vacant
panel
Watkins
cynic
skillful
rainbow
lieutenant
outsiders
addictive
Floriane
storyteller
unreason
adopts
##hhhh
Chico
elevates
Driving
Reserv
##uttering
Wenders
preventing
Rico
towel
consumption
devastation
exploded
affectionate
Courten
Extra
Thirdly
Matheson
STARS
lacklustre
coastal
pondering
Shahrukh
awaits
resurrected
resurrection
##IFF
poured
skulls
Dyan
Hirosh
Hirsch
picnic
decapitation
Begins
##trusive
oozes
McAdams
intolerable
Filth
Kamal
crammed
Rigg
Foley
Hershey
Pasolini
Warhols
intervals
instructions
resentment
hairdo
extraneous
Pedro
misunderstandings
snooze
Pullman
uneducated
Winslet
##heartedly
exorcism
atheist
unquestionably
Gossett
browsing
adrenaline
Zabris
untouched
Kornbluth
tabloid
Hernandez
Lolita
Scandin
Jovi
RPG
misadventures
immortality
surrogate
naïve
lecherous
Tennessee
threesome
untimely
##ikipedia
Ame
BB
Bless
COP
Cotten
Dh
Dil
Done
Dund
EVEN
Foch
Gump
Gotta
Hunting
Ivy
Kw
Mame
Mank
Pest
Pand
Rue
Riff
Said
SING
SUN
Tou
Tint
Tree
Told
VII
Yak
Yawn
ZOMB
bashed
coo
cape
cube
cobb
dining
fert
fried
fizz
gel
gos
jaws
kooky
puls
sooo
vets
wage
walt
##di
##muller
##rus
##rison
##wagon
##wicz
##leness
##én
##40
##QU
##inis
##inos
##oris
##isse
##edded
bru
brid
##icum
##leone
bee
beasts
Thai
##idenced
seal
##tergeist
hairst
hagg
heated
##unner
alligator
abundant
alibi
##oline
##ppard
hash
##udrama
legged
##igail
##icket
##ogist
##ishness
overr
Chappe
don´t
##iang
blurb
spook
spying
spits
spades
Shel
Shue
Sholay
Stere
whereby
descending
gruel
##aughey
slides
sliced
resorts
lottery
apathetic
decently
believers
believably
embe
obese
##azine
evidenced
##isson
subsc
##derick
accum
Whats
Forman
Blaine
Blazing
Unt
gloves
##grown
Robson
secondly
committee
assail
##ierre
homeland
##syl
##ggae
Carface
##psies
unflin
modicum
cuteness
##aji
slowed
novice
Edition
Mayer
Kend
continual
nonchal
Harilal
televised
boor
Adolf
##fficient
devised
Diab
sympt
narrating
posturing
Schlesinger
barriers
Mostel
Paran
Watched
fireplace
##clectic
damaging
ghou
fascism
innocently
Cheer
designers
Crown
undem
massively
newsre
STOP
Tea
labour
Badly
responses
Knights
Target
Giants
Parts
defeating
Moreau
irritation
Terence
Masterpiece
knowledgeable
cowork
accountant
junkies
Surf
dismay
improvisation
Hayward
Adding
ranc
Valer
hallways
fraction
corrupted
wrapping
Dogtown
reflective
distribute
Wallach
beaches
Portia
participated
Produced
domineering
ALWAYS
Idi
cheerle
journalism
grimy
portraits
Skywalker
Francois
nominee
hoods
pinned
Azaria
comfortably
tosses
Jerome
lurks
abyss
matinée
metaphorical
glorify
jeans
exhibition
ceases
Duckling
Breakfast
glossed
foolishly
enlightening
platoon
hammered
Strip
hippy
shreds
recip
prepares
Limits
Andersson
MADE
breeze
embraced
twentieth
Liberal
McMahon
Rosenstrasse
Kaspar
volunteer
Chinatown
##hibited
decadence
Tadzio
Chopra
anachronistic
Imperial
Axel
Tonight
Clockwork
dangling
##xygen
Bulgaria
vitality
renewed
enlightenment
reconciliation
grenade
Vittorio
archetypal
fisherman
rudimentary
brothel
cuddly
touted
indictment
outtakes
squandered
Berenger
Guttenberg
Cheyenne
unofficial
nubile
DePalma
Jekyll
acceler
Edinburgh
Yuzna
Se7en
ZOMBIE
BOO
Buk
Benton
Ching
Dell
DOWN
Doubt
FOUR
HUM
Juhi
Kling
Lommel
Mili
MIGHT
Niet
Nils
OW
OC
PH
Rage
Riley
Sade
Sera
Salem
Tank
Tube
Ups
Vad
Vatic
Wool
ae
aqu
ahem
bere
baw
btw
cyl
dow
fates
gathers
hid
hobb
iv
jumbled
ketch
loo
mesh
mumbling
nurt
navig
ropes
siege
sorcery
wimpy
##cal
##crib
##nut
##affect
##tm
##words
##law
##lane
##lasses
##IB
##DD
##kovsky
##64
##12
##erb
##eded
##anas
##repid
##omeness
whit
rekind
##etted
stamped
shove
##estown
##rained
aller
abn
aloud
##opia
Itchy
##ortant
unite
unrest
unpret
prick
prisons
##inking
##ickers
ark
##inees
peas
imbe
quarre
overc
overuse
overkill
Chester
everyman
guiding
workings
intercut
flute
flush
flipp
flavour
Shy
serpent
Stare
Stuff
hordes
spew
##ocket
simulated
Asians
downer
comedienne
longs
smok
completing
cheezy
Howell
Howling
needn
insin
wholeheartedly
Bee
Begotten
phoned
Week
founded
Johnston
Myra
creaky
daydream
Americana
certainty
##ontz
discont
##ixen
Ard
skirts
deter
coherence
depos
humorless
dried
drifting
amazement
rednecks
snobby
captors
##ificate
oppressed
Amadeus
Admir
##archy
##oulin
embedded
respecting
potato
Morrison
freezing
creepiest
mystic
mystique
mysticism
Abigail
trem
silently
businessmen
forwarded
Tracey
robs
grandpa
spacecraft
##shank
collectors
condensed
Horner
identification
travelogue
##eeee
drawer
Iris
tortur
competitors
Corleone
Franç
Strang
governor
logically
impressionable
persist
Broderick
185
##arshan
120
Betsy
Terri
Teresa
##IEW
Sadie
##azzard
##knownst
Camille
Devito
knockout
brightly
electrical
electrifying
Carrera
separates
blocking
haters
Presley
missionary
despised
Lords
Surprise
improvise
Clever
Cleese
Montand
pretentiousness
Commission
Moonstruck
Roddy
panache
baggage
welfare
Miracle
##baum
hacked
routinely
enthusiastically
Calam
wrestlers
angered
overdose
customer
Sunset
inhabits
Window
spirituality
Report
Sawyer
towering
buckets
Azumi
comforting
sidekicks
##vais
Ultimate
moaning
Rubin
blasting
Spirited
cliffhanger
Kaye
intrins
UNDER
fragmented
Hungary
Odessa
Assault
Mahmut
maiden
Visual
Pyun
tailor
bells
retained
Coolio
athlete
Abbot
socio
railway
Battlefield
Joline
docudrama
##oscope
disgraceful
tangled
obstacle
Fellow
##irstyles
pockets
Inferno
newcomers
seamless
Bronx
adulterous
Blethyn
restrictions
Avenger
harassed
Keyes
Wolfe
recreating
Nevada
curtains
concoction
Testament
Hersch
snapshot
mannequin
announcement
butterfly
unjustly
##broken
Havilland
Brewster
Frye
telegraphed
##billies
wisecracks
BEAUT
BETTER
Murders
ridiculed
Commandments
Mehta
Electric
analogy
Venezuela
reappear
Disappointing
dictionary
incongruous
Ordinary
Champlain
Poppins
##unciation
uninvolving
accolades
Battleship
sullen
Saddles
invincible
Adelaide
HEAVEN
epidemic
anticlim
Eleniak
EXTRE
SOMET
asinine
unimportant
pinnacle
stupider
saccharine
Kuzco
ugliness
indestructible
Enchanted
Courtenay
Hiroshima
Dundee
ghoulish
undemanding
Kasparov
ketchup
52
93
92
Aime
Bare
Books
Cey
CAST
Cotton
Dic
Dru
DAM
Eck
Election
Fog
Gim
Gass
Goe
Goya
Hazzard
Javier
Jasper
Korda
Lillian
Loves
Mock
Mord
Move
Mats
MISS
Pole
Paget
Renny
Sick
Salt
Sica
WAST
XX
Yoda
aug
battered
coy
cord
cement
dandy
dishes
eclectic
freed
ferry
fencing
giddy
hiking
icing
japan
mould
nagging
pix
rang
rapt
rangers
scept
sizes
tac
tidy
wipes
yada
£1
##mila
##tar
##tro
##tube
##iating
##rators
##voy
##wes
##woven
##wicke
##sin
##gem
##gus
##AKE
##bare
##pia
##EP
##kk
thou
##arce
brib
brighter
##cts
##iloqu
whiz
##vette
##etera
stint
stroll
stooges
shook
##urdy
hairstyles
livel
libid
churned
##rip
##uli
comet
##ppity
bystand
##ousers
herring
hass
timeline
unve
leak
troop
intrepid
##igers
##gey
##oyalties
endurance
overcomes
wrists
##acho
blog
blunder
bludge
spill
spilled
flirts
##pection
Hebrew
veers
veins
##othe
grades
grinding
underwritten
droning
resides
genitals
Anast
screenings
##ugi
invade
needles
accented
sexism
mainland
carrier
induce
audacious
Seem
impro
Forces
Revel
Reggie
additions
##ographies
THe
defying
##itching
discs
Cloris
homemade
Wellington
Mani
##apel
Toons
faceless
Growing
##ypically
Keeler
Doors
stealth
Hari
coolness
##guiled
Tromeo
##ANGE
solutions
quicker
Jeepers
##oulos
airline
prizes
innate
equality
covert
gangsta
appreciates
Guerr
creeped
Norway
Twent
Comments
##offensive
combo
fellows
Grable
striving
winding
firemen
operator
bandits
Cheesy
undress
physic
debts
religions
legally
ambush
Crap
machete
merchand
bombastic
suitcase
Mohr
multitude
astound
magnet
magnetic
Babylon
Sarne
frustrations
Lifeforce
McCorm
praises
trusting
Judi
INT
seller
Darryl
Russel
civilisation
Outstanding
teddy
Farm
Fargo
subtitle
Columbus
Surface
incomparable
speeds
manipulating
Malick
Castell
circular
dispute
flex
Raising
snowballs
##aaa
springs
Romano
volatile
chopper
populate
Bernstein
NEED
emphasized
##URN
uniqueness
##CTOR
fixing
empower
##EEP
Build
heavenly
Waterston
tuning
showcasing
bowling
Argentina
Altogether
pedd
journalists
neckl
anticipate
inherits
Deputy
consuming
unmotivated
Creepers
imitations
lifestyles
immigration
drowns
##ofrio
assaulted
Shawshank
jeep
Dominick
Varma
strangeness
helplessness
Transyl
insistence
Tanner
warrants
Sharif
resonates
mishm
Zelda
terminally
chatting
Hickock
demeaning
AFI
pillow
Hendrix
uncovered
Haggard
cheesiest
##FECT
undermined
constitutes
Teenage
##school
conjure
Wolver
unscathed
unscrupulous
catalogue
Ferrer
juxtaposition
disrespectful
homoerotic
comprehensive
perplexed
Amenabar
chauvin
chauffe
trimmed
electrocuted
sillier
unavailable
Hoskins
interpre
recollection
gunshot
orientation
eclipse
nobility
artifacts
skeletons
MERK
Vernon
Nadia
Yugoslavia
Chopper
toddler
Tennant
sprawling
autopsy
GWTW
Lazarus
OMG
indirectly
Fifth
Cousin
bemused
Boogeyman
tearjerk
degradation
Ameche
hairstyle
Vatican
unpretentious
Starewicz
SOMETHING
38
Aur
Aeon
Bes
Bent
Cute
Cats
Corky
CITY
DP
Dread
DES
Danson
ET
Fang
Fli
Falling
Gianc
HD
Hays
Hats
HOL
Joss
Jensen
Jigsaw
Kan
Kier
Kells
Lan
Lilly
Lanza
Mant
Maine
Moto
Obel
OSS
Pax
Rail
Rains
Rik
Rhy
Razor
Ski
Soup
Sassy
Tobias
Violet
Wives
Waste
Za
Zan
banks
cuz
dagger
dye
eur
harbor
hulking
hinges
htm
oxygen
pent
vest
wince
wards
##mont
##tably
##resh
##vances
##uest
##gary
##YY
##qatsi
##khar
##VA
##KING
##erves
##atility
##escent
##isans
##aration
##arms
toast
inesc
##icity
##icially
##iless
reek
forwards
shiver
youtube
lia
##omever
##pelin
##pels
##rack
##uling
sofa
plumb
abusing
##actly
outlet
outraged
orthodox
conced
##oso
leaf
manhood
tram
##igl
whatnot
perennial
##oga
pepp
##avis
##assador
offices
ammun
Inman
wrought
##awkish
spun
spiders
intercourse
interwoven
flipped
crunch
Shelly
##phones
throughly
recorder
recapture
slant
slaps
strangle
##ocks
##ounce
##ounge
apartheid
##ecter
Askey
eminently
substand
bigoted
Anj
cheers
##ibli
##appreci
classify
isnt
handing
crapp
lastly
phantom
Weir
Reilly
Reiner
##rosse
##adys
monolith
default
superp
portal
Atkins
Steiger
refrain
Claw
Clutter
Clerks
##uthbert
##insky
coax
Christensen
Carlin
romantically
dribble
unfathom
formation
misogy
Nowhere
morose
Herbie
medication
situated
##OTS
Harley
Trump
Differ
potty
tenants
##bridge
victimized
##EAL
Monk
racially
afflu
afflict
affirm
referenced
ers
richness
Enc
ghoul
Gladys
Crouse
debuted
##zzi
radiant
Batista
Correct
hanged
labyrinth
redeems
Slim
Slasher
Slumber
Hitchcockian
Boom
Jonny
Eraser
pairs
irritates
Nazarin
##essione
conversion
superiority
Across
Sherwood
unintended
Delia
ensures
##visor
##locks
Added
parked
photographic
rebirth
##ukor
solemn
16th
salary
salute
ineptly
inventing
17th
Skater
multiplex
tomboy
ludicrously
bitterly
Rhodes
dominating
homosexuals
##omercial
Countess
dependable
Waterfront
garish
stuntman
candles
possessing
Region
Sabu
Ghosts
cheeky
Springs
virginal
##ONEY
Azmi
Rolling
boggles
advancement
micro
riveted
impersonate
requirements
injects
TRUE
temperature
nausea
exhibited
prompted
Valentino
Communism
unrelenting
obtained
flooded
ruling
grassho
##oisse
IFC
##rrrr
Strikes
Cliffhanger
Khouri
pumping
venue
Gardiner
Messing
bratty
Sleeping
ACTING
Croft
undermines
retrospective
bothersome
Koontz
disinterested
Holloway
bulb
Prisoner
rapper
Dolby
bolts
42nd
sauce
##rimination
components
craftsmanship
trumpet
undergoes
Ivory
Freudian
introspective
scholarship
Achilles
Splatter
deprived
synthesizer
lynch
rodeo
shrewd
Brittany
##amenco
Equally
trafficking
kilter
lauded
envisioned
Illuminated
Vikings
Congrat
Tomlinson
IRS
kindergarten
disorient
undercurrent
KGB
Kareena
surveillance
potboiler
milestone
wobbly
soprano
cottage
fractured
paralyzed
##pelganger
Association
template
unprofessional
Folks
thesis
Development
Reservoir
Obelix
ammunition
substandard
misogyny
06
57
81
Bound
Bian
Cuthbert
Dury
Eust
ELE
ESP
Fist
Fig
Flet
Gazz
Gavin
HEAD
Jaffe
Kaf
Lud
Link
Lights
MS
Mes
Method
MOST
Nand
Pint
Punk
Pump
ROT
RING
RIGHT
Riders
Sou
Sven
Sah
Sier
Skel
Somers
Sincl
Udo
Vasey
Wray
Winger
Yus
Zar
Zato
berserk
cov
dot
dork
dorky
darling
eman
eject
fiddle
gushing
hmmm
lobby
muse
mawkish
nad
nary
rund
sic
tel
troll
wrecks
##mist
##maid
##film
##fred
##western
##ulet
##TM
##bus
##OC
##NER
##BER
theology
##ingway
##onso
##edoph
##itri
inches
##alon
onwards
##eto
stash
stared
stagn
##ghi
##imps
Theory
sepia
hectic
heinous
chag
cherry
choked
##ulity
scoff
scoop
plains
plumm
##ighton
mell
megal
##ortex
unad
unto
unborn
##udg
##igma
claws
##apor
##inker
arson
##assed
Chik
Choi
wrink
wayward
##qué
blasts
Butcher
spans
interference
crusty
yea
Shall
serene
awaken
##ipated
backbone
recap
slams
drone
strateg
idle
exceeds
terrifically
Ana
smacks
nothingness
newfound
invitation
invaded
##inement
warmed
cleared
##asters
Levant
##ucking
parlor
Una
Unfor
Unknown
shortage
provoked
recommendations
favors
##arno
##arned
Marina
discrimination
Steps
##ceptively
Weller
cozy
graffiti
coroner
painst
Tooth
advis
redef
swan
swall
bloodless
pastor
McP
valiant
strands
psychosis
##iked
republic
##upiter
Indie
Pearce
Tran
solic
soliloqu
Jameson
sweeps
faulty
varies
gunfights
illicit
airplanes
embro
landlady
pleasurable
Twist
Parade
##aughton
Quint
Flower
silk
catchph
patrons
robust
firefighters
Ennio
Woodward
unspoken
purported
recognizing
recognisable
immune
Cromwell
Madge
commonplace
melody
ambulance
sticky
Bobbie
doorstep
replied
##LEY
Moz
investigations
Slav
Pola
journeys
commercially
hostages
Feed
comparatively
Kriem
Hardwicke
Beta
clothed
Baba
primal
Magazine
riots
denig
gripped
celebrates
Bloods
Denne
Spacek
VH1
touring
veritable
Wasn
Dorian
Demonic
Ronny
translator
contributing
armored
pressing
hallway
dispos
dispatched
photographers
Rodgers
bounds
Merrill
14th
Satanic
Radford
##IRD
Rainer
1922
hopping
flowed
MOVIES
accompaniment
commandos
spellb
Savannah
psychoan
cockpit
installments
anticipating
cavemen
phenomena
occupy
county
pseudonym
Pennsyl
sympathies
##worldly
engineered
tossing
GREEN
concluding
egos
perpetual
splendidly
Munich
senator
settling
fragments
##loat
apprent
Protest
voye
sunglasses
Waltz
Brotherhood
mislead
persuades
Tamil
Cyber
Translation
entranced
gimmicky
Republican
connoisse
Lessons
unravels
Soprano
pumped
memorized
Marxist
Knowles
ragged
fueled
viewpoints
adversary
luxurious
Wrestling
Circus
Colorado
patronizing
##AHAH
calculating
intolerance
##uvre
##FTA
PAX
motifs
Loggia
360
Sondheim
McBain
royalty
Hemingway
masculinity
greasy
greeted
treasures
trophy
synchronized
counselor
Cooley
delinquents
Philippines
Ungar
Closet
Nimoy
vomiting
theatrically
Ossessione
Wheeler
pessimistic
Crocodile
impatient
schmaltzy
hunchback
ardent
Suspects
maneuver
beggars
Danielle
guerrilla
Shakti
misdirect
unacceptable
propriet
repulsed
pesky
puddle
esoteric
Schroeder
Flamingos
Aubrey
pervasive
Answer
Zabriskie
Milius
Zatoichi
rundown
Kriemhild
02
Abe
Barth
Bachelor
CB
Cyr
Cumming
Cukor
Dict
DIE
Easter
Earp
Funn
Fawl
Gem
Gets
Gains
Giving
GOLD
Hours
Hodder
Ji
Lé
Lay
MM
Moor
Nether
NOR
Path
Pushing
Ruther
Ringu
Raptor
Som
Sep
Tough
Tang
Tail
Trib
VI
Vall
Vidal
Wink
cack
cooks
dé
erect
fangs
hound
hounds
hugging
ka
mong
maverick
nigh
oops
pam
pony
pours
rivers
roses
rusty
tapped
vil
##card
##saken
##lot
##liss
##UG
##jun
##Bay
##ñuel
##ör
##ouve
##onov
inan
inoffensive
bro
brazen
##allic
##ceans
##ceived
sham
shone
##urry
hah
suite
sugary
fringe
##orean
exile
plucky
alliance
bypass
##aga
##agen
##opoulos
nec
enable
canal
unhinged
##igm
Whe
clutter
knights
##plicated
##plet
thrott
adam
dissect
realising
##obiles
firstly
André
##quited
##quels
##quarters
spunky
Showing
Shots
##izards
roar
removes
gritt
slain
underp
##ifiably
##mega
surly
Fresh
decaying
emulate
##azi
##azer
subgen
smir
smiled
suppressed
##ugget
##airo
##cedented
Sheffer
helmed
bund
Beery
##what
extensively
Alliance
versatility
delayed
Leia
provokes
headstrong
Robards
##arna
specialized
Scat
Marley
visibly
assed
##ernails
Steward
Steamboat
skim
distrust
hearty
disappointingly
##attie
heroics
powerhouse
redone
misre
sworn
admiring
Mayall
Paquin
##ANS
ordering
devout
payed
Elwes
hellish
Samson
Morita
Disg
Guiness
##hees
Flowers
raft
patently
patiently
##ESOME
Traci
execra
Serling
Institute
homages
Emile
Barman
immac
Cradle
languid
Madeline
reprising
requiring
legion
Janeane
antiqu
ambient
Redemption
Rockwell
smartest
Darkman
shipwreck
savior
afloat
fooling
Snider
Garry
Trevor
Bloodbath
archival
verve
blocked
Dorff
Sinuhe
educate
cracker
Ghibli
Hayao
Hawking
dispose
distracts
uncomfort
Bradford
Bradbury
Collector
volcano
forthcoming
hacker
Radu
endeavors
floors
LAPD
Trivia
Bullet
Rosanna
bootleg
Grandpa
##isputed
Jayne
unrequited
Buzz
Buñuel
Soviets
Currie
NYPD
cheerleader
bounces
assassinated
Knightly
triumphant
conspiracies
patriot
SUV
selfishness
unmem
paedoph
35mm
Ringo
cornball
blasted
Vivien
utilize
poisonous
Puri
collaborator
Bowie
##ketball
cannibalistic
Putney
jerking
LOTS
persuaded
Affair
schlocky
Lonely
Documentary
Quebec
reinforce
mishaps
Saif
Wyatt
bumping
Zeff
selections
Football
summarized
WTC
CANN
crops
Postman
Happened
Lamberto
Malta
overpowering
Margera
Keystone
Yuen
loathsome
degenerate
Leading
concocted
embraces
cobra
speculation
volunteers
Islamic
bubbly
stormy
RAF
Stratten
drooling
pyram
archaeologist
MacLaine
unprecedented
Tilney
BAFTA
Higgins
leisurely
conspic
HAPPEN
Leroy
excerpts
Bolivia
WOMAN
Sturges
mammoth
unsubtle
cassette
unfulfilled
Miguel
sledgehammer
Rochon
Filipino
extravaganza
Breath
Requiem
rancid
peasants
EXTREME
mishmash
Wolverine
tearjerker
Congratulations
Duryea
Eustache
Fawlty
Rutherford
9th
Bj
Boot
Bubba
CAS
CKY
Cuckoo
Dion
Dup
Dwarf
Doodle
Danton
Eb
Fion
Fos
Hast
Hoy
IL
Ide
JJ
Jade
Jaf
Jada
Jupiter
Kri
Kersh
Latter
LINE
Lulu
Mang
Mumb
Merry
Maud
Malley
MATCH
Moulin
Nations
Ober
Pike
Punch
Poverty
Sob
Sna
SOU
SCH
Taut
Tues
Vas
WOULD
Waco
dour
hose
hater
hots
jelly
kite
khan
lapt
mac
mike
muff
matured
pyr
sank
tat
tapping
tumble
ugh
wal
wary
wailing
##oise
##dem
##dings
##cap
##cox
##nn
##takingly
##fro
##rani
##uish
##gil
##gment
##gues
##zards
##pat
##paper
##FOR
##xed
##inence
##atore
##atious
##atary
##atio
##orably
##enz
##enst
##isen
##arming
toting
##anim
broom
##omo
##icides
##alay
bean
Thinn
##sticks
##stalker
ons
onset
onscreen
replete
##aden
##gher
##imented
Them
anore
seeds
##urney
##urities
hefty
##rolling
frantically
##unc
scat
sciss
scumb
scru
dop
dogged
##olics
##usp
##artic
worsh
outw
##istani
cong
dip
##ichael
charitable
canoe
ung
leopard
manure
##geoning
prat
prud
##ogel
thematically
##ishable
Chorus
partition
##print
##prised
guidelines
blanks
intermitt
interchange
##izu
##ipers
Stamp
Stacey
horns
bestiality
desirable
slum
drilling
attentions
resounding
10th
surm
genital
compat
##ews
trippy
##onsider
applying
classmate
Bey
instruction
impotent
entre
Reub
##ERN
supervisor
wasnt
fanatical
##sterdam
##anners
specialty
Scal
Arbuck
Spit
detention
distortion
Clif
Clair
lows
studded
emoting
graced
Carrell
cutouts
##quez
##ynasty
darkened
Newcombe
centred
aval
##eneye
Danner
Edna
strains
motorb
Keach
pickp
profane
Amsterdam
Percy
buildup
Drunk
postwar
spoils
doubtless
##liner
Schwart
barf
barrage
Comes
Comanche
Abby
Exactly
Coltr
famously
Angus
Angry
Anglo
treason
Yorker
Flo
Monaghan
babbling
Grail
##ambur
erased
madd
professors
imminent
Crouching
Program
Madame
##ervation
Crack
sweetly
solidly
Maclean
merchant
Alexis
spotting
Batwoman
testoster
STAY
Teut
Corin
Corps
Strangel
suitor
smartly
Slip
Poltergeist
Knotts
Coch
hostess
escapades
urinating
burgeoning
Stephens
breathtakingly
Roz
Erotic
Terrific
Dickson
eighteen
Esk
Lesley
##ICAL
Susannah
##ETH
System
knockoff
chickens
INS
departed
explosives
verse
gradual
banker
Delpy
turkeys
accomplishes
ensl
armies
##OLF
manipulates
Loach
unearth
organizations
Leonora
Milan
Rais
##ittered
grossed
swordplay
salad
Casino
falsely
tolerant
tolerated
Costa
Florinda
Vincente
experimentation
Daisies
bravely
Insp
HAH
Checking
Bellucci
Wolfgang
Resurrection
arrange
arrows
arranges
Saboteur
counse
Wendt
Flem
Marsha
virgins
sympathise
threadbare
hooded
ruthlessly
suburbia
wickedly
fortunes
mechanism
dictates
ceremon
Gregg
Marsden
Bolkan
settlers
saddened
functioning
anthem
bargained
casualties
Varney
jawed
LOTR
Liev
Akira
commended
antagonists
overlooking
orphaned
Saul
Entertaining
Souls
whiskey
protests
gamers
Republicans
Busy
pumpkin
fundamentalist
DIDN
contradictions
rehearsed
Sienna
Cosmo
Moby
clinical
babysitting
##apidated
requests
melancholic
Olympia
quantity
Pakistani
fiercely
palsy
loathe
percentage
Gigli
rappers
exemplifies
drafted
ineffectual
crowning
stagy
Cujo
Brewer
perplexing
sleepwalking
notoriously
benchmark
gothic
pupils
Kellerman
silliest
screeching
unheard
LaBute
embodiment
aficionado
aficionados
tinted
interfere
pacifist
Federal
Dinosaurs
syrupy
shrieking
engulfed
vindict
unmistakable
stomping
Anchorman
Utterly
Toxic
idiosyncratic
unknowingly
dictatorship
rooft
lungs
extravagant
lemon
Wednes
fingernails
diseases
rhetoric
Caucasian
yuppie
Weissmuller
wagons
ADVENT
Schaech
McConaughey
BTK
indelible
Aishw
hokum
excursion
Scandinavian
embezz
Nietz
##affected
Anastasia
Fletcher
Sinclair
chagrin
uncomfortably
Fiona
Mumbai
Thinnes
Arbuckle
Coltrane
testosterone
Strangelove
43
Aim
Aidan
Bouch
Breck
Banc
Boots
Creed
Credit
EP
FANT
FIVE
Gould
Hatch
Hole
Kip
Khar
Kiki
Katsu
Luch
LAME
MD
Mult
Maid
Ni
Oed
Pul
Pate
Pep
Pita
POL
Pistol
PART
Pianist
Rive
Rab
SR
Soll
Sitting
Taste
Tingle
Titta
Vlad
Wikipedia
Yikes
bollywood
dice
ditch
damp
eighth
eBay
gou
gard
hover
jumble
jazzy
mog
moth
nas
oe
pine
piss
paces
sombre
uk
vistas
vixen
yo
yep
##cs
##iave
##fy
##full
##sons
##guns
##bat
##belly
##books
##hu
##hire
##Ch
##BE
##aturing
##atrix
##edo
##itating
inim
brig
##icio
##otional
whips
whipping
##ething
stam
stack
stones
stems
##seat
waster
foray
forte
forew
ank
ante
##irie
hem
##illery
chast
churn
chatter
china
##rift
##raf
sund
##rolled
##roads
plac
allusion
alluded
abhor
weas
alm
##olition
##ppingly
##akh
bygone
deceptively
someplace
consec
##umably
##aug
diat
digger
charmed
charging
unity
units
unworthy
leering
propel
goon
pristine
sheets
##arsis
##solete
##isham
Chel
##qual
blaming
interlude
flown
crust
cranky
sermon
##ensity
##cese
Starr
Stole
##mering
backup
backseat
recovers
reclaim
veiled
##occhio
##uality
slashed
resigned
102
submer
##eway
supple
Howdy
fares
accuses
Seberg
##liven
##lihood
bookstore
Allied
Reun
Reich
##oki
##linger
##lington
tyrant
Blah
provin
discredit
Spot
skunk
lowly
coher
lineup
songwriter
deprec
THEM
THEIR
unfriend
advancing
##owsky
masterwork
snack
snapped
morale
listless
infomercial
##iencies
Kei
profic
Orchest
Orthodox
sleek
Trick
Trish
Peruv
cheapness
sweater
quickie
variable
airs
protracted
Woronov
##brush
Compton
##ILY
truthfully
##hea
Flock
silents
Benet
affable
Braff
uttering
Evidently
Smoking
intending
Serbs
encaps
discoveries
##rupted
trading
Crus
Crisis
debating
Horizon
socialite
intrigues
Rocket
proposition
disgra
fatig
Jeffries
Broke
afar
Knows
Feeling
individually
Aviv
geisha
irritate
Shakespearian
lads
freakin
Deathtrap
Deathstalker
Suspir
Damien
derive
electronics
balances
uninhibited
Linden
Santi
risqué
stinking
Romy
pencil
armour
banquet
Janice
confrontations
disposition
cruelly
Leoni
Moonlight
gracefully
tackled
Rodden
Mercer
torso
naivety
Humor
inventions
composers
loft
Artists
##uhl
gigs
liberation
Yourself
##CTV
hauntingly
hookers
yelled
concerts
Arabs
superficially
chuckling
Landau
McGuire
forests
PLAY
BLUE
jerker
Calls
Called
altar
shroud
deceived
Iceland
toilets
Secretary
scratches
horrendously
prospective
Sullavan
Oriental
Intentions
Frodo
spreads
Audiences
squeaky
observant
EXC
bogged
culmination
Operation
AWESOME
matte
utilizing
WARS
unpop
Shorty
Assassin
dishe
guitarist
Mahler
Putting
palette
wigs
stirred
troublesome
compensated
AMAZ
aesthetically
claustrophobia
indicative
reconcile
breeding
gamer
allegorical
Clifford
Business
lenses
orgasm
Morty
Piggy
prophet
Hagar
drifts
##UDGE
efficiently
undermine
Girlfriend
fabricated
##ANGER
Bassett
cohesion
Fabian
Prague
SWAT
##butz
rapport
insomniac
vegetable
cyborgs
diluted
Hawaiian
advertisements
McNally
BUY
Constance
bravado
prosecutor
Raider
##nikov
whistling
escalating
Freaks
Stratton
mounted
dismemberment
666
FINAL
Tremors
Zeppelin
barking
thwarted
parodying
hoodlums
clarify
rehabil
##sheba
vampirism
Reverend
silhouette
Symphony
jeopardy
Hewitt
swashbuckling
extends
Trelkovsky
Meeker
memoirs
Jansen
hospitals
ramblings
tumult
##iphany
shunned
scrutiny
Fahey
GHOST
Parrish
EXACTLY
peripheral
unthinkable
##Shane
kibbutz
Mussolini
enamored
gospel
haggard
Chappelle
Giancarlo
peppered
superpowers
Different
Gazzara
Sierra
Yusuf
nadir
Mozart
Dennehy
Pennsylvania
unmemorable
Krige
Snafu
Clifton
Wednesday
Aishwarya
Bancroft
Kharis
Suspiria
Roddenberry
53
69
Bapt
Bones
Blier
Cors
COME
Cavalry
Dum
Dool
Dash
Daly
Graph
Garth
Hul
Hana
Hilliard
IBM
Jang
Kick
Kai
Krell
KISS
Lose
Lions
Laf
Lerner
Lecter
Mere
MAT
MONEY
Oph
Omega
Pent
Pract
PAT
Prey
Pieces
RG
ROM
RET
Rights
SK
Sons
Ta
Tae
Typically
Voor
Viking
Writers
aide
auction
achingly
bos
bunny
civ
hier
hrs
kings
len
latch
muck
mama
ole
pave
rife
rails
tactic
vortex
wook
wallow
##dard
##fus
##rish
##ride
##wind
##uers
##lis
##lich
##lined
##RID
##HN
##CC
##LER
##99
##MS
##11
##ür
thigh
##inelli
##orian
##orph
##enity
##onte
##arcer
##asers
##asso
##utz
bevy
begged
Thirst
##lys
##stoke
rethink
sturdy
##idate
##aments
sealed
shivers
##ulence
##ulars
sued
##elight
abras
aborted
##artet
delect
##astair
enab
enhan
enliven
unap
unass
goodies
trashing
intents
##itya
storylines
whichever
##abble
Whist
clique
cloying
perm
pervers
permitted
##onditional
peg
quits
overwork
disem
Cheng
##fters
##prene
flaming
Hef
Hein
##bering
##berty
Stap
Stahl
sliding
slumber
Alastair
##wey
attire
resists
humility
##ounced
doesnt
genoc
Asylum
esch
emig
Bress
oriental
relic
trifle
smashes
stupend
personable
secular
##ineman
sexploitation
readings
comeupp
##overished
ideological
crafty
audacity
DeC
impet
impoverished
Notting
Alley
Repe
Bluth
superman
superhuman
headquarters
##grily
##grove
talkative
Arrest
Spin
Spanky
Onofrio
Clown
excused
deathbed
animat
definately
Manny
messes
favored
##scapes
collide
powerless
misinter
McShane
snicker
##eney
medal
touchy
honors
shooters
promos
reputed
constructive
antith
Ade
Adj
Dram
Drug
embittered
dogma
complicate
creeping
periodically
metamorph
attackers
Jimi
Jimmie
Design
dumbing
referential
limo
Blackadder
grandchildren
eras
publication
projector
Crane
communicated
revolved
Vanishing
reprises
Swain
radically
soulful
Goldeneye
tougher
criticised
programmer
fearful
Hamm
favours
Jeffery
forefront
188
Spelling
Species
117
Featuring
charmingly
objections
defeats
corrected
implicit
independently
frighteningly
highlighting
preferable
Greenwood
denies
grizzled
Silv
brightest
broader
relieve
uninterested
surrealist
WHEN
WHERE
temp
Texan
Delirious
Prep
DOCTOR
stinkers
Presumably
gratitude
modeled
stealer
tackling
Borg
Border
pancake
##burger
Budget
ticking
companionship
Computer
puppies
Tyson
Salvation
Brandauer
linking
Ashraf
Prior
Priya
##roller
Beatrice
argues
commando
filters
Soundtra
letterbox
Insom
Curr
Curious
Renfro
Winds
Student
Andrei
Metropolis
Urmila
obligated
Rican
DEF
groin
taxes
##www
chronology
Sexy
seventeen
shouted
eternally
renamed
nodding
egreg
Bryant
graduates
Greystoke
collaborations
Bettany
Almasy
tailored
Dominique
strangled
ROB
Digges
Cookie
Sharma
butchering
attribute
bumped
tangible
Relig
awakened
Nikol
narcotics
prophecy
diminish
queue
superstars
ducks
babysit
Celie
attends
Langella
spontaneously
meteorite
Undead
Standing
MacDowell
exemplary
landmarks
inexperience
Legion
completists
transpires
erupts
pollution
unsuccessfully
Waiting
bravura
congratulate
Golan
Discovery
Buddhist
Haley
treasured
titillation
claymation
withdrawn
Sicily
Bathsheba
Zenia
dystop
incessantly
Graduation
dwelling
crusade
vanishes
Ackland
pearls
permeates
tyrann
tyranny
adolescence
friggin
befuddled
laziness
Sparks
Ranma
frivol
deconstruct
Donnell
kinetic
underestimated
deficiencies
Drebin
Ecst
Sjö
Baseball
##istinguishable
Shields
plagiarism
Contains
BASE
Oxford
DeLuise
tantalizing
Jaffar
Vulcan
hastily
Merkerson
Mithi
Oswald
foresee
Franchot
barbaric
WONDER
wannabes
Inglorious
bridges
boorish
Nilsson
tacit
chauffeur
inescapable
affluent
Kafka
##mistress
disposable
apprentice
subgenre
entreprene
unfriendly
Orchestra
Doolittle
2x
72
8mm
Abel
Biss
Bord
Bait
Coul
Dmy
Dorn
Duel
Ditto
Egan
FLY
FEE
Fifties
Gul
Gael
Greed
GUN
Garson
Hobb
Hutch
Hauer
HOUR
Hatcher
Iago
JB
Jero
Kud
Kills
Lover
LEA
MUR
Maude
Mimi
Muller
Nacho
Ou
Pare
Pray
Prop
Piano
Rapp
RENT
Rani
Sign
SIL
Sixties
TB
Toll
Toul
Tipping
VIV
Vogel
WIND
aunts
barr
cabb
coven
fel
feline
gist
nugget
pas
rasp
som
tid
vene
wager
yawning
##dale
##eenth
##cule
##mobile
##aun
##venty
##uptuous
##UU
##WH
##bies
##bius
##zied
##OG
##GG
##NIGHT
##Carly
##CAR
##jay
##210
##orically
##isz
##itations
##itigated
inert
brag
bricks
##alg
bele
beads
whores
##styn
##ovis
##etts
##ayers
##idency
##ooh
anatomy
##amos
semit
##irs
shaving
shoving
shaved
##kends
##illat
##usted
allied
##artan
##opol
It´s
outsh
dizzy
justifies
manual
mangled
##iga
##igor
##abase
showy
cler
clunk
cloning
perceptive
##aport
arse
peaks
##avory
##ivities
adher
##nected
polem
##awful
##tyre
workplace
spilling
spouts
##gino
teasing
fla
flushed
Shen
Shal
Healy
Stark
Starb
Stalker
roam
removal
granny
slums
slumming
caste
Fruit
Fricker
apathy
obsolete
Brin
Brut
##azes
##issi
reloc
##airn
##aired
needy
Sheeta
carpent
consens
##pressed
indistinguishable
TVM
phon
Deod
Wein
Forg
entangled
delay
delirious
politely
##uckers
resting
acute
gla
follower
Scout
Scamp
Scots
Arlington
refresh
homely
excite
heartstr
animator
##atta
generals
wrongs
examining
flickering
impressing
swoon
admitting
gameplay
snore
listings
Grun
curve
cultured
repent
Indones
solitude
##uggers
gunpoint
indec
goreh
##inois
appreciating
Directing
trepid
trends
teachings
Flux
silences
strippers
windsh
crews
sickeningly
ANGE
villainess
Wooden
unsavory
trades
bandwagon
debatable
identifiable
Vanity
cafe
90210
Houseman
Parks
Irvin
Goldwyn
terrorize
competitor
ballad
programmed
tastefully
STRE
Corner
exploitive
suitors
##relson
labels
Moan
harmed
Scient
110
objectively
qualms
##ippers
Duval
Appe
virtu
melodramas
nuke
Espos
Devon
##ETS
##bbels
Democr
regretted
translates
Jannings
Malik
disposed
Commando
Loaf
alternating
Alberto
conceal
Lorel
panor
panning
Remains
Casa
Skull
offends
hysterics
##IRTY
priority
Incident
Including
Tori
Costume
participant
Kristy
Arag
filtered
Ozzy
bikes
cyber
Argentine
Offside
Astor
tagged
Witchery
restaurants
splendor
tempting
##agher
DEV
dumping
Matthews
WORSE
renov
invisibility
Dalmat
owing
Lucifer
detractors
Ruben
impersonator
Singleton
blanket
aids
prevails
slaughtering
inappropriately
artificially
Hackenstein
functional
exteriors
Phillippe
insisting
Latinos
substituted
analyzed
vigor
Lieberman
indicator
docu
cautious
whisper
ramble
umpt
Funeral
cathartic
##AWN
Global
rags
bushes
Cardinal
auditioning
Happiness
collapsed
constitute
Tigerland
slacker
adoption
insecurities
harassment
##evil
Motorama
molested
scandalous
prospects
embracing
riddles
Kipling
catastrophic
Pazu
Bahrani
moviegoer
Kirby
McIntyre
Pleasence
evaluate
cranked
whistle
McDonalds
penetrating
unintelligent
Daughters
Supreme
wisecracking
Semitic
gaudy
militant
Gladiator
Mazurs
##species
recollect
gunshots
Creepy
adolescents
Cockney
battery
pedophile
SUCKS
lucid
prodig
Chairman
decrepit
Hussey
louder
Celebr
figuratively
##imonious
promiscuous
Yvonne
Rutger
recounts
Konkona
Coffy
Nemo
reincarnated
churches
fundamentally
grueling
unflinching
allergic
Admiral
Goebbels
astoundingly
necklace
spellbinding
Netherlands
execrable
Tautou
Tuesday
scissors
avalanche
inimitable
Santiago
unpopular
unapolog
Adjani
Jeroen
veneer
windshield
63
67
Aard
Boun
Bander
Cable
Cue
Cav
COR
Cait
Dare
Darn
Died
Daven
Dault
DTV
Ends
EIGHT
Faces
Fineman
Gong
Goon
Hip
Hanson
Jerk
Kell
Lips
Mim
Mole
MILD
Nak
Nab
Naus
Naval
N64
Olin
OUR
Pf
Pasc
PRI
Rack
Root
Sis
Sot
Soo
Sanch
SLE
Siber
Ti
Tung
TEN
TRE
Vardon
Wo
Wake
Wode
WELL
Zimmer
baz
cooked
ditzy
eu
fals
fidelity
gov
hark
hanger
iota
jockey
lite
muppets
pins
paved
rash
soo
tan
tore
vert
wade
##dish
##ely
##eouf
##nian
##tit
##iard
##iary
##rative
##wd
##won
##word
##uil
##liction
##lico
##SW
##Re
##IK
##IBLE
##biz
##zar
##hop
##hman
##OSE
##GIN
##COM
##JOY
##öm
##eros
##nden
##nders
##atly
##esters
##arest
##arro
##arium
bred
brace
##alous
whomever
##iev
Thous
##advant
stained
##idon
asides
anom
seething
shatter
haw
hee
chant
##pef
##usting
##oreal
exiled
sobbing
weaving
outcomes
conned
##ackle
cane
unwise
##ptu
upright
uphe
manor
proc
trough
moreover
##igree
##igible
##ffy
##ffik
priced
Whipped
clicked
perceptions
##ogun
endures
endowed
peep
pepper
immer
otherworldly
pretext
##intaro
displaced
Chou
writh
blithe
teased
Shower
##izingly
Store
backf
descended
recovery
reconsider
grunts
##irez
##irelli
Alamo
underage
underbelly
drenched
incarcer
humd
musically
##ials
startled
Brim
Joa
compact
Anchors
smut
apples
inserting
personified
consent
indoor
audible
Beguiled
impose
impuls
elit
##isma
Form
womanizer
Rey
Rein
poorer
parach
glitz
headlights
yearn
##rued
Scra
discreet
Ont
distressed
Clamp
heartbroken
lowbrow
copper
generating
Manchester
concise
##otechn
regurg
Davy
succinct
mischief
bloodbath
McT
selfless
uncaring
uncovers
##enex
cults
culturally
psychos
critter
costly
##traction
Harmon
Peru
solace
boomers
Aditya
Pharaoh
hotter
Elin
Paulo
##aiman
embodies
appreciative
pleaser
dullness
Guzman
baron
Abh
utters
fella
Flick
babble
affinity
strife
patented
flashlight
Traffik
robe
stagey
firefighter
Woodard
Woodstock
capability
unsuit
##uffy
##uffle
Empty
innocuous
##omania
bleached
traveler
puberty
Housew
colorless
remarked
godfather
toughest
proposed
normalcy
interviewer
Cora
tripod
Burrows
Hampton
Slausen
Brolin
Brodie
183
Feld
alienating
burying
Avalon
absurdist
breathes
moralistic
Genre
Genie
Carlisle
Garof
Garrett
Thomerson
Apna
Babies
freakish
nuis
stationed
Greenwich
McCart
Devgan
benevolent
channeling
archives
Ramirez
Royston
WHITE
hinting
hypoth
risking
Prec
recalling
bathed
neighboring
gratifying
texts
encountering
Montreal
halls
parks
unease
##ILLA
Campfire
falters
Miramax
hurricane
application
idealist
idealized
Triad
liberally
Bogus
Recall
Rosa
cabaret
Fergus
sensitively
unconvincingly
pitfalls
farmhouse
sneering
tongues
skewed
ALM
coincidental
chuckled
McGovern
executions
facet
cheerfully
feminism
##limited
occupants
financing
automobile
Maher
##hemian
Marshal
broadcasting
declined
Subspecies
MASTER
unhapp
prayers
engineering
rhymes
fluke
Kirkland
Mediter
Pickup
Cassavettes
responded
poisoning
assaults
requirement
maligned
Confident
hypnosis
Bowl
satiric
Lumiere
SEVEN
Elias
conquered
crawls
Shaq
Pinkett
institutions
eliminating
persuasive
recycling
dodge
McLaren
##ASTIC
Barkin
substituting
Shouldn
warranted
degraded
duds
tango
squadron
gamble
Illinois
unleashes
Strike
judgmental
delicately
catharsis
Lupin
Mortimer
frenzied
Fools
spaceships
reverence
Destination
Fighting
distressing
adversaries
Laden
Croat
##enders
proclaims
Fabulous
bluntly
masochist
frogs
##umiya
abandonment
vegetables
dilapidated
Stepford
Parsif
Labyrinth
chimps
Breillat
DAYS
flourishes
corridor
repercuss
MOON
storage
sponsored
Honeymoon
SAV
Sicilian
Webster
ridicules
gowns
pupil
columnist
sniffing
infiltrate
FINALLY
unhealthy
Knew
unsurprisingly
diplomat
certificate
enforced
Mistress
looming
Revolver
hoodlum
ecstatic
mistreated
reinforced
nipple
sporadically
inkling
Pittsburgh
Manchu
gypsies
assessment
nitpick
uncontrollable
Quincy
Amelie
exercises
Caleb
LIVING
FULL
Uzumaki
overthrow
Principal
Tyrannosaurus
##illotine
##tryk
Rendition
unreasonable
cobbled
Paranormal
Cheerleader
newsreel
Bukowski
OWN
Fellowes
anticlimactic
Transylvania
Zanuck
##appreciated
voyeuristic
Dictator
Hastings
[...]
